uu-dem9_r25_1_40.json
GEN 0 time 1578998381
[0.8478153197408432, 0.6360210342781597, 0.10794068671966595, 0.2991770429717533, 0.20393147846390902, 0.10875383176142839, 0.09144592611137092, 0.334492002245248, 0.2479805033492012, 0.19965504148081392, 0.8777717326010878, 0.5347026744635023, 0.1811313000630731, 0.2613139410868768, 0.8148915562655377, 0.7209368502039062, 0.1575232144673675, 0.08271092414414727, 0.2515545826469724, 0.20315925423091408, 0.7526412558525647, 0.996183347238502, 0.8193419153146585, 0.8427846605691468, 0.12881520484222697, 0.6728315150188269, 0.9853222374491645, 0.8625152271920501, 0.3434761820698653, 0.11528399807372325, 0.7946788262425657, 0.02225257543277448, 0.9381433740196109, 0.3224773631204698, 0.6433122322554258, 0.056439194932499714, 0.32250835267984623, 0.02115399621352032, 0.11311409863589272, 0.9552028638730342, 0.8933447184980353, 0.7542966732964781, 0.9583982407961694, 0.6907897963155475, 0.18426076247025314, 0.4621477859681258, 0.19153503618693124, 0.0591024122554874, 0.36087944369979186, 0.812836255771612, 0.722966580063323, 0.5766961990857138, 0.6764065496889922, 0.8199965139488352, 0.32126108774227513, 0.8347525860954782, 0.5690569403918713, 0.7419622760252614, 0.4898820474146214, 0.3651840741103357, 0.20085936640134616, 0.6229332408184055, 0.9553624454452193, 0.23634185772774585, 0.9927228961782066, 0.4307747440074965, 0.38473919924266986, 0.1932574278875384, 0.6786008455401566, 0.08477588235290134, 0.08349926545230124, 0.38907153018213103, 0.16883828543186152, 0.1647696388088975, 0.8738599155752669, 0.4077705056811052, 0.783627637511617, 0.25516107760395135, 0.9453658726289468, 0.7930790586460499, 0.8412888306962346, 0.4831182156380097, 0.4689474308948278, 0.8960761012876182, 0.09085934974324061, 0.9000249050787436, 0.14244348770428472, 0.2451928421627676, 0.29108133558512594, 0.7790984933562084, 0.8118074707298233, 0.5998003755367903, 0.02567601501920147, 0.3641082220622991, 0.09831838478353527, 0.18565382901249272, 0.4580799313080407, 0.46420598252197354, 0.9778030962199832, 0.22820907963866455, 0.13801512636736735, 0.40564332331920583, 0.7886074561120071, 0.5508497499090068, 0.8802829539370077, 0.3428544506773309, 0.9021831302520196, 0.9823822501090487, 0.9291786598822139, 0.9831168785631749, 0.47942448766338386, 0.7574980937167866, 0.6916027587919291, 0.9088345647650637, 0.009583848801265726, 0.9114581474614898, 0.013486087961735338, 0.7731623364127765, 0.690162391810916, 0.4056836808173496, 0.8836113436746135, 0.46341785009102476, 0.1284540690317444, 0.09967973185758827, 0.22285274441023628, 0.14337948580591797, 0.7451735906670863, 0.7580113895817026, 0.5523963743955661, 0.9827342567837408, 0.4367947244385656, 0.6495399059247996, 0.05369735358125183, 0.4534731044836059, 0.639051726645097, 0.9813438999936714, 0.6339543148847726, 0.17914325975044154, 0.972664898893018, 0.604599523328051, 0.07076693218273222, 0.5940366937612039, 0.6365902031133419, 0.14383349418156954, 0.8030081970251999, 0.023452355849703177, 0.7936285473851229, 0.8103824779755211, 0.43511592994275206, 0.08069192310173234, 0.9964384538293252, 0.15540427010508207, 0.3711486715528999, 0.3710602677974416, 0.3521956794334622, 0.18632607217410324, 0.37480840314546054, 0.09665897068709828, 0.5550485849622128, 0.2420938869646408, 0.941105238558126, 0.43466642060192695, 0.6083118446883944, 0.35208468351088035, 0.2952666172108646, 0.6547288261012467, 0.42622366821756663, 0.470154162428281, 0.7748437729838096, 0.42510196014770757, 0.8951077784225099, 0.4741474331046945, 0.47125454296375835, 0.3275539316306959, 0.5611274741316956, 0.38724726632889916, 0.8128052744114037, 0.2581291024279142, 0.24831712872548423, 0.7215305194946462, 0.23905755421692776, 0.9448617209535339, 0.3609534558797899, 0.5960106281909643, 0.8703563931439493, 0.3653066488884912, 0.5074454832913808, 0.5545459454750572, 0.6187257052372838, 0.5018863655608743, 0.3091670919388928, 0.24464656179978134, 0.8149630732143296, 0.7287898627376954, 0.5247784652251575, 0.4085853488188045, 0.1934223651646736, 0.16045593370252453, 0.831000275924259, 0.6396018475421794, 0.9375619703230691, 0.5002637662852256, 0.5476311732033314, 0.08139551033755027, 0.5836974517980811, 0.13973435257458755, 0.7253658099925822, 0.5301278746851814, 0.41397883780435474, 0.079755424648987, 0.5201416939553656, 0.8679838328048046, 0.4530505473287546, 0.4170828510419219, 0.8940988809137498, 0.13208352787826283, 0.03192238999468955, 0.5606829116318647, 0.35298442211874215, 0.7679727971675939, 0.32703814962037214, 0.4515807101420475, 0.18599267767621475, 0.49699724431080017, 0.5276537483185783, 0.65186262493378, 0.8475287281889979, 0.78164945258074, 0.09688350976180926, 0.2786786153290932, 0.8405221798692657, 0.7202306958981639, 0.059256171703686245, 0.6572185461372831, 0.8667778250120419, 0.3445520947132411, 0.8206673467891968, 0.6508938983550964, 0.25024501339201755, 0.3626767885300298, 0.736503929319622, 0.493527600362611]	[0, 0, 0, 0, 0, 0, 0, 0, 0, 0, 0, 0, 0, 0, 0, 0, 0, 0, 0, 0, 0, 0, 0, 0, 0, 0, 0, 0, 0, 0, 0, 0, 0, 0, 0, 0, 0, 0, 0, 0, 0, 95, 19, 35, 99, 19, 16, 2, 88, 69, 16, 111, 16, 19, 19, 95, 24, 2, 88, 24, 16, 2, 16, 19, 88, 2, 24, 24, 84, 35, 95, 16, 84, 24, 107, 19, 57, 2, 2, 84, 70, 76, 51, 88, 59, 101, 95, 95, 52, 107, 76, 107, 95, 111, 87, 43, 101, 86, 107, 114, 88, 120, 94, 99, 76, 111, 95, 87, 76, 97, 76, 49, 101, 88, 111, 88, 94, 84, 81, 107, 65]	[94, 0, 18, 0, 0, 0, 0, 0, 0, 0, 0, 0, 0, 0, 0, 0, 14, 0, 0, 6, 0, 0, 0, 0, 10, 0, 0, 0, 0, 0, 0, 0, 0, 0, 0, 32, 0, 0, 0, 0, 0, 0, 0, 20, 0, 0, 0, 0, 0, 9, 0, 1, 8, 0, 0, 0, 0, 7, 0, 5, 0, 0, 0, 0, 0, 5, 0, 0, 0, 10, 1, 0, 0, 0, 0, 0, 6, 0, 0, 0, 0, 1, 0, 0, 4, 0, 2, 9, 7, 0, 0, 0, 0, 0, 2, 19, 0, 1, 0, 2, 0, 3, 0, 0, 0, 0, 0, 5, 0, 0, 0, 8, 0, 0, 3, 0, 0, 0, 0, 0, 4]	0.006600904112943644
GEN 1 time 1578998384
[0.8478153197408432, 0.6360210342781597, 0.10794068671966595, 0.41686011873566203, 0.2403183159188535, 0.3044593178012002, 0.19353231424773154, 0.5520751419515654, 0.13349162789246755, 0.36768902644107715, 0.5959829105719965, 0.5056928081221711, 0.33874105704985963, 0.20139361446220078, 0.43715744792617905, 0.779125141069541, 0.2709630445069393, 0.4030245450104438, 0.3452122283496827, 0.2756574493326713, 0.44943512237338007, 0.7453354875720895, 0.9082299398530145, 0.764705176183422, 0.3054658330024522, 0.6534990448531997, 0.5419538755819651, 0.6821429843462035, 0.22886930889651952, 0.13415584616217324, 0.4848554209160753, 0.34037497095976216, 0.6782156246458753, 0.6545360633413805, 0.6238798077786141, 0.06100183395955128, 0.3497603857268759, 0.031391336290835015, 0.47154335281701204, 0.5085624164978225, 0.8102626404747253, 0.41992948711475986, 0.8301070206855468, 0.7157716296326613, 0.5124808168811714, 0.24128986719101003, 0.12344777070004348, 0.3388513789691666, 0.652819515360238, 0.776348379026794, 0.8278959299839634, 0.7006701031754929, 0.7667740885652645, 0.626435004870984, 0.3851172922162793, 0.46114653589389654, 0.5307220844267809, 0.8020571453865226, 0.4898820474146214, 0.3651840741103357, 0.20085936640134616, 0.6229332408184055, 0.9553624454452193, 0.23634185772774585, 0.9927228961782066, 0.4307747440074965, 0.38473919924266986, 0.1932574278875384, 0.6786008455401566, 0.08477588235290134, 0.08349926545230124, 0.38907153018213103, 0.16883828543186152, 0.1647696388088975, 0.8738599155752669, 0.4077705056811052, 0.783627637511617, 0.25516107760395135, 0.9453658726289468, 0.7930790586460499, 0.8412888306962346, 0.4831182156380097, 0.4689474308948278, 0.8960761012876182, 0.09085934974324061, 0.9000249050787436, 0.14244348770428472, 0.2451928421627676, 0.29108133558512594, 0.7790984933562084, 0.8118074707298233, 0.5998003755367903, 0.02567601501920147, 0.3641082220622991, 0.09831838478353527, 0.18565382901249272, 0.4580799313080407, 0.46420598252197354, 0.9778030962199832, 0.22820907963866455, 0.13801512636736735, 0.40564332331920583, 0.7886074561120071, 0.5508497499090068, 0.8802829539370077, 0.3428544506773309, 0.9021831302520196, 0.9823822501090487, 0.9291786598822139, 0.9831168785631749, 0.47942448766338386, 0.7574980937167866, 0.6916027587919291, 0.9088345647650637, 0.009583848801265726, 0.9114581474614898, 0.013486087961735338, 0.7731623364127765, 0.690162391810916, 0.4056836808173496, 0.8836113436746135, 0.46341785009102476, 0.1284540690317444, 0.09967973185758827, 0.22285274441023628, 0.14337948580591797, 0.7451735906670863, 0.7580113895817026, 0.5523963743955661, 0.9827342567837408, 0.4367947244385656, 0.6495399059247996, 0.05369735358125183, 0.4534731044836059, 0.639051726645097, 0.9813438999936714, 0.6339543148847726, 0.17914325975044154, 0.972664898893018, 0.604599523328051, 0.07076693218273222, 0.5940366937612039, 0.6365902031133419, 0.14383349418156954, 0.8030081970251999, 0.023452355849703177, 0.7936285473851229, 0.8103824779755211, 0.43511592994275206, 0.08069192310173234, 0.9964384538293252, 0.15540427010508207, 0.3711486715528999, 0.3710602677974416, 0.3521956794334622, 0.18632607217410324, 0.37480840314546054, 0.09665897068709828, 0.5550485849622128, 0.2420938869646408, 0.941105238558126, 0.43466642060192695, 0.6083118446883944, 0.35208468351088035, 0.2952666172108646, 0.6547288261012467, 0.42622366821756663, 0.470154162428281, 0.7748437729838096, 0.42510196014770757, 0.8951077784225099, 0.4741474331046945, 0.47125454296375835, 0.3275539316306959, 0.5611274741316956, 0.38724726632889916, 0.8128052744114037, 0.2581291024279142, 0.24831712872548423, 0.7215305194946462, 0.23905755421692776, 0.9448617209535339, 0.3609534558797899, 0.5960106281909643, 0.8703563931439493, 0.3653066488884912, 0.5074454832913808, 0.5545459454750572, 0.6187257052372838, 0.5018863655608743, 0.3091670919388928, 0.24464656179978134, 0.8149630732143296, 0.7287898627376954, 0.5247784652251575, 0.4085853488188045, 0.1934223651646736, 0.16045593370252453, 0.831000275924259, 0.6396018475421794, 0.9375619703230691, 0.5002637662852256, 0.5476311732033314, 0.08139551033755027, 0.5836974517980811, 0.13973435257458755, 0.7253658099925822, 0.5301278746851814, 0.41397883780435474, 0.079755424648987, 0.5201416939553656, 0.8679838328048046, 0.4530505473287546, 0.4170828510419219, 0.8940988809137498, 0.13208352787826283, 0.03192238999468955, 0.5606829116318647, 0.35298442211874215, 0.7679727971675939, 0.32703814962037214, 0.4515807101420475, 0.18599267767621475, 0.49699724431080017, 0.5276537483185783, 0.65186262493378, 0.8475287281889979, 0.78164945258074, 0.09688350976180926, 0.2786786153290932, 0.8405221798692657, 0.7202306958981639, 0.059256171703686245, 0.6572185461372831, 0.8667778250120419, 0.3445520947132411, 0.8206673467891968, 0.6508938983550964, 0.25024501339201755, 0.3626767885300298, 0.736503929319622, 0.493527600362611]	[0, 0, 0, 0, 0, 0, 0, 0, 0, 0, 0, 0, 0, 0, 0, 0, 0, 0, 0, 0, 0, 0, 0, 0, 0, 0, 0, 0, 0, 0, 0, 0, 0, 0, 0, 0, 0, 0, 0, 0, 0, 95, 19, 35, 99, 19, 16, 2, 88, 4, 16, 111, 16, 19, 19, 95, 24, 2, 88, 24, 16, 2, 16, 19, 88, 2, 24, 24, 84, 4, 95, 16, 84, 24, 107, 19, 57, 2, 2, 84, 4, 76, 51, 88, 59, 101, 95, 95, 52, 107, 76, 107, 95, 111, 87, 43, 101, 86, 107, 114, 88, 120, 94, 99, 76, 111, 95, 87, 76, 97, 76, 49, 101, 88, 111, 88, 94, 84, 81, 107, 65]	[94, 0, 18, 0, 12, 0, 0, 0, 0, 0, 0, 0, 0, 0, 0, 0, 14, 0, 0, 6, 0, 0, 0, 0, 10, 0, 0, 0, 0, 0, 0, 0, 0, 0, 0, 20, 0, 0, 0, 0, 0, 0, 0, 19, 0, 0, 0, 0, 0, 9, 0, 1, 8, 0, 0, 0, 0, 7, 0, 5, 0, 0, 0, 0, 0, 5, 0, 0, 0, 0, 0, 0, 0, 0, 0, 0, 6, 0, 0, 0, 0, 1, 0, 0, 4, 0, 2, 9, 7, 0, 0, 0, 0, 0, 2, 18, 0, 1, 0, 2, 0, 3, 0, 0, 0, 0, 0, 5, 0, 0, 0, 8, 0, 0, 3, 0, 0, 0, 0, 0, 4]	0.004200904112943644
GEN 2 time 1578998387
[0.8478153197408432, 0.6360210342781597, 0.10794068671966595, 0.95843339558525, 0.20393147846390902, 0.10875383176142839, 0.09144592611137092, 0.5822302884024037, 0.2479805033492012, 0.19965504148081392, 1.1291110842452454, 0.5347026744635023, 0.2723580309119173, 0.2613139410868768, 0.8148915562655377, 0.7209368502039062, 0.1575232144673675, 0.08271092414414727, 0.2515545826469724, 0.1316383024558767, 0.7526412558525647, 0.996183347238502, 0.8193419153146585, 0.8427846605691468, 0.12881520484222697, 0.6728315150188269, 0.9853222374491645, 0.8625152271920501, 0.3434761820698653, 0.11528399807372325, 0.7946788262425657, 0.02225257543277448, 0.8286453793834938, 0.3224773631204698, 0.6433122322554258, 0.056439194932499714, 0.32250835267984623, 0.02115399621352032, 0.11311409863589272, 0.9552028638730342, 0.8933447184980353, 0.7542966732964781, 0.9583982407961694, 0.6454052149349152, 0.18426076247025314, 0.4621477859681258, 0.19153503618693124, 0.0591024122554874, 0.36087944369979186, 0.812836255771612, 0.722966580063323, 0.5766961990857138, 0.45037171756521477, 0.8199965139488352, 0.2403059353763943, 0.8347525860954782, 0.5690569403918713, 0.7419622760252614, 0.4898820474146214, 0.3651840741103357, 0.20085936640134616, 0.6229332408184055, 0.8589092442843861, 0.23634185772774585, 0.9927228961782066, 0.4307747440074965, 0.21375469440500305, 0.456886538252908, 0.6786008455401566, -0.002821964024454643, 0.08349926545230124, 0.5831737517501825, 0.16883828543186152, 0.1647696388088975, 0.8738599155752669, 0.4077705056811052, 0.783627637511617, 0.25516107760395135, 0.9453658726289468, 0.7930790586460499, 0.6315474120136195, 0.4831182156380097, 0.4689474308948278, 0.8960761012876182, -0.05329015878179022, 0.9000249050787436, 0.14244348770428472, 0.2451928421627676, 0.29108133558512594, 0.7790984933562084, 0.8118074707298233, 0.5998003755367903, 0.02567601501920147, 0.3641082220622991, 0.001890204932921788, 0.18565382901249272, 0.4164220576266103, 0.46420598252197354, 0.9778030962199832, 0.33234004702045955, 0.13801512636736735, 0.44909396685293673, 0.7886074561120071, 0.5508497499090068, 0.8802829539370077, 0.3428544506773309, 0.9021831302520196, 0.9823822501090487, 0.9291786598822139, 0.9831168785631749, 0.47942448766338386, 0.7574980937167866, 0.6916027587919291, 0.9088345647650637, 0.009583848801265726, 0.9114581474614898, 0.013486087961735338, 0.7731623364127765, 0.690162391810916, 0.4155928066489733, 0.8836113436746135, 0.46341785009102476, -0.1959231253245287, 0.09967973185758827, 0.22285274441023628, 0.14337948580591797, 0.7451735906670863, 0.7580113895817026, 0.5523963743955661, 0.9827342567837408, 0.4367947244385656, 0.6495399059247996, 0.05369735358125183, 0.4534731044836059, 0.639051726645097, 0.9813438999936714, 0.6339543148847726, 0.17914325975044154, 0.972664898893018, 0.604599523328051, 0.07076693218273222, 0.5940366937612039, 0.6365902031133419, 0.14383349418156954, 0.8030081970251999, 0.023452355849703177, 0.7319098367247873, 0.7245454068897557, 0.43511592994275206, 0.08069192310173234, 0.9964384538293252, 0.15540427010508207, 0.3711486715528999, 0.3710602677974416, 0.6547510738145456, 0.18632607217410324, 0.37480840314546054, 0.09665897068709828, 0.5550485849622128, 0.524283644822106, 1.0645608407350928, 0.43466642060192695, 0.795924362529379, 0.18744588208846313, 0.16301503147316895, 0.8793513245551916, 0.42622366821756663, 0.470154162428281, 0.7748437729838096, 0.42510196014770757, 0.8951077784225099, 0.4741474331046945, 0.47125454296375835, 0.3275539316306959, 0.5611274741316956, 0.38724726632889916, 0.8128052744114037, 0.2581291024279142, 0.24831712872548423, 0.7215305194946462, 0.23905755421692776, 1.1835935872758483, 0.293589723145603, 0.5960106281909643, 0.9488215821869252, 0.3653066488884912, 0.5074454832913808, 0.5545459454750572, 0.6187257052372838, 0.5018863655608743, 0.3091670919388928, 0.24464656179978134, 0.8149630732143296, 0.7287898627376954, 0.5247784652251575, 0.4085853488188045, 0.1934223651646736, 0.16045593370252453, 0.831000275924259, 0.3678073244249052, 0.9375619703230691, 0.5002637662852256, 0.5476311732033314, 0.08139551033755027, 0.5836974517980811, 0.5280462268419722, 0.7253658099925822, 0.5301278746851814, 0.4486923333017721, 0.079755424648987, 0.5201416939553656, 0.8679838328048046, 0.4530505473287546, 0.4170828510419219, 1.1235022403142623, 0.13208352787826283, 0.03192238999468955, 0.5606829116318647, 0.346166325718323, 0.7679727971675939, 0.32703814962037214, 0.2766003021174906, 0.2327704317654709, 0.49699724431080017, 0.5276537483185783, 0.65186262493378, 0.5763808642798365, 0.5699592106014205, 0.09688350976180926, 0.07139606255946962, 0.8405221798692657, 0.7202306958981639, 0.059256171703686245, 0.6572185461372831, 0.8667778250120419, 0.3445520947132411, 0.8206673467891968, 0.6508938983550964, 0.25024501339201755, 0.3626767885300298, 0.736503929319622, 0.493527600362611]	[0, 0, 0, 0, 0, 0, 0, 0, 0, 0, 0, 0, 0, 0, 0, 0, 0, 0, 0, 0, 0, 0, 0, 0, 0, 0, 0, 0, 0, 0, 0, 0, 0, 0, 0, 0, 0, 0, 0, 0, 0, 95, 19, 35, 99, 19, 16, 108, 88, 4, 16, 111, 16, 19, 19, 95, 24, 108, 88, 24, 16, 108, 43, 19, 88, 108, 24, 24, 59, 4, 95, 16, 59, 24, 107, 19, 108, 108, 2, 59, 4, 108, 51, 88, 59, 101, 95, 95, 52, 107, 108, 107, 95, 111, 92, 43, 101, 86, 107, 114, 88, 120, 94, 99, 108, 111, 95, 100, 54, 97, 108, 49, 101, 88, 111, 88, 94, 59, 81, 107, 78]	[94, 0, 6, 0, 12, 0, 0, 0, 0, 0, 0, 0, 0, 0, 0, 0, 19, 0, 0, 18, 0, 0, 0, 0, 10, 0, 0, 0, 0, 0, 0, 0, 0, 0, 0, 15, 0, 0, 0, 0, 0, 0, 0, 14, 0, 0, 0, 0, 0, 9, 0, 1, 14, 0, 12, 0, 0, 0, 0, 5, 0, 0, 0, 0, 0, 0, 0, 0, 0, 0, 0, 0, 0, 0, 0, 0, 0, 0, 5, 0, 0, 1, 0, 0, 0, 0, 2, 0, 13, 0, 0, 0, 3, 0, 2, 12, 0, 1, 0, 2, 6, 3, 0, 0, 0, 0, 0, 5, 11, 0, 0, 8, 0, 0, 3, 0, 0, 0, 0, 0, 4]	0.004000926038449644
GEN 3 time 1578998390
[0.8478153197408432, 0.6360210342781597, 0.10794068671966595, 0.41686011873566203, -0.061857641606069824, 0.3044593178012002, 0.19353231424773154, 0.5520751419515654, 0.13349162789246755, 0.36768902644107715, 0.5959829105719965, 0.5056928081221711, 0.33874105704985963, 0.22426445369251338, 0.43715744792617905, 0.779125141069541, 0.31836151693433795, 0.4030245450104438, 0.3452122283496827, 0.2756574493326713, 0.44943512237338007, 0.7453354875720895, 0.8961100065191605, 0.764705176183422, 0.3054658330024522, 0.6534990448531997, 0.5419538755819651, 0.6821429843462035, 0.22886930889651952, 0.04687458332360382, 0.4848554209160753, 0.34037497095976216, 0.6782156246458753, 0.9390632939995568, 0.6238798077786141, 0.06100183395955128, 0.3497603857268759, 0.031391336290835015, 0.7002010685909315, 0.5085624164978225, 0.8102626404747253, 0.3932598226761157, 0.8301070206855468, 0.7157716296326613, 0.41285351192640063, 0.24128986719101003, 0.12344777070004348, 0.3388513789691666, 0.652819515360238, 0.776348379026794, 0.7014037027960158, 0.6551960543038965, 0.9287499590930852, 0.5140929682406832, 0.3851172922162793, 0.46114653589389654, 0.5307220844267809, 0.8029845152759862, 0.4898820474146214, 0.3651840741103357, 0.20085936640134616, 0.6229332408184055, 0.9553624454452193, 0.23634185772774585, 0.9927228961782066, 0.4307747440074965, 0.38473919924266986, 0.5560290224159425, 0.6786008455401566, 0.08477588235290134, 0.08349926545230124, 0.38907153018213103, 0.22292410410692481, 0.5289487486478689, 0.8738599155752669, 0.4077705056811052, 0.783627637511617, 0.25516107760395135, 0.9453658726289468, 0.7833183142713315, 0.8412888306962346, 0.45354454112649106, 0.4689474308948278, 0.8867828132503736, 0.09085934974324061, 0.9000249050787436, 0.14244348770428472, 0.2451928421627676, 0.20740835782220815, 0.7790984933562084, 0.8118074707298233, 0.5998003755367903, 0.02567601501920147, 0.3641082220622991, 0.09831838478353527, 0.18565382901249272, 0.4580799313080407, 0.46420598252197354, 0.9778030962199832, 0.22820907963866455, 0.13801512636736735, 0.07655946518683926, 0.7886074561120071, 0.5508497499090068, 0.8074498379567538, 0.22179593020264582, 0.9021831302520196, 0.9823822501090487, 0.9291786598822139, 0.9831168785631749, 0.47942448766338386, 0.7574980937167866, 0.7759112040426837, 0.9088345647650637, 0.009583848801265726, 0.9114581474614898, 0.013486087961735338, 0.7731623364127765, 0.690162391810916, 0.4056836808173496, 0.8836113436746135, 0.46341785009102476, 0.1284540690317444, 0.09967973185758827, 0.22285274441023628, 0.34560612719418204, 0.7451735906670863, 0.7580113895817026, 0.5523963743955661, 0.8606579673583965, 0.4367947244385656, 0.38746199411002924, 0.19191341350175217, 0.6155984830789125, 0.639051726645097, 0.9813438999936714, 0.6339543148847726, 0.17914325975044154, 0.972664898893018, 0.7024559407189672, 0.07076693218273222, 0.5940366937612039, 0.6365902031133419, 0.14383349418156954, 0.7792581720386327, 0.023452355849703177, 0.7936285473851229, 0.25893441363785263, 0.43511592994275206, 0.08069192310173234, 0.9964384538293252, 0.15540427010508207, 0.3711486715528999, 0.3710602677974416, 0.3521956794334622, 0.18632607217410324, 0.37480840314546054, 0.1701405250208042, 0.5550485849622128, 0.2420938869646408, 0.941105238558126, 0.43466642060192695, 0.31443421138437183, 0.35208468351088035, 0.2952666172108646, 0.3912748615541244, 0.4709239008502488, 0.46591272054760463, 0.7748437729838096, 0.42510196014770757, 0.8951077784225099, 0.4741474331046945, 0.47125454296375835, 0.3275539316306959, 0.5611274741316956, 0.38724726632889916, 0.8128052744114037, 0.2581291024279142, 0.24831712872548423, 0.7782525243598281, 0.23905755421692776, 0.9448617209535339, 0.3609534558797899, 0.6251548466883767, 0.8703563931439493, 0.3653066488884912, 0.5074454832913808, 0.5545459454750572, 0.7556983902717127, 0.2143182469195442, 0.4649276822686905, 0.24464656179978134, 0.905974441027946, 0.582187762200639, 0.5247784652251575, 0.4085853488188045, 0.1934223651646736, 0.16045593370252453, 0.831000275924259, 0.6396018475421794, 0.9375619703230691, 0.5002637662852256, 0.5476311732033314, 0.08139551033755027, 0.5836974517980811, -0.018774103346248794, 0.7253658099925822, 0.5301278746851814, 0.41397883780435474, 0.079755424648987, 0.5201416939553656, 0.8679838328048046, 0.4530505473287546, 0.4170828510419219, 0.8940988809137498, 0.3376774621175984, 0.03192238999468955, 0.5606829116318647, 0.53099289095887, 0.945181042860197, 0.32703814962037214, 0.4515807101420475, 0.18599267767621475, -0.0671007150371763, 0.5276537483185783, 0.65186262493378, 0.9739556618260587, 0.78164945258074, 0.09688350976180926, 0.2786786153290932, 0.8405221798692657, 0.7202306958981639, 0.059256171703686245, 0.6572185461372831, 0.8667778250120419, 0.3466902041646015, 0.8206673467891968, 0.6508938983550964, 0.25024501339201755, 0.3626767885300298, 0.736503929319622, 0.493527600362611]	[0, 0, 0, 0, 0, 0, 0, 0, 0, 0, 0, 0, 0, 0, 0, 0, 0, 0, 0, 0, 0, 0, 0, 0, 0, 0, 0, 0, 0, 0, 0, 0, 0, 0, 0, 0, 0, 0, 0, 0, 0, 95, 19, 35, 99, 19, 16, 2, 88, 4, 16, 111, 16, 19, 19, 95, 84, 2, 88, 84, 16, 2, 16, 19, 88, 2, 84, 84, 117, 4, 95, 16, 84, 24, 107, 19, 57, 2, 2, 84, 70, 76, 51, 88, 68, 101, 95, 102, 52, 102, 76, 102, 102, 111, 102, 43, 101, 86, 107, 114, 88, 120, 106, 99, 76, 111, 95, 87, 76, 97, 76, 49, 101, 88, 111, 88, 102, 73, 81, 107, 65]	[91, 0, 18, 0, 11, 0, 0, 0, 0, 0, 0, 0, 0, 0, 0, 0, 14, 0, 0, 6, 0, 0, 0, 0, 10, 0, 0, 0, 0, 0, 0, 0, 0, 0, 0, 18, 0, 0, 0, 0, 0, 0, 0, 17, 0, 0, 0, 0, 0, 9, 0, 1, 8, 0, 0, 0, 0, 7, 0, 0, 0, 0, 0, 0, 0, 5, 0, 0, 7, 0, 1, 0, 0, 9, 0, 0, 6, 0, 0, 0, 0, 1, 0, 0, 6, 0, 2, 1, 7, 0, 0, 0, 0, 0, 0, 16, 0, 1, 0, 2, 0, 3, 7, 0, 0, 0, 8, 0, 0, 0, 0, 8, 0, 0, 3, 0, 0, 8, 0, 0, 4]	0.003800929090968027
GEN 4 time 1578998393
[0.8478153197408432, 0.6360210342781597, 0.10794068671966595, 0.41686011873566203, -0.061857641606069824, 0.3044593178012002, 0.19353231424773154, 0.5520751419515654, 0.13349162789246755, 0.36768902644107715, 0.5959829105719965, 0.5056928081221711, 0.33874105704985963, 0.22426445369251338, 0.43715744792617905, 0.779125141069541, 0.31836151693433795, 0.4030245450104438, 0.3452122283496827, 0.2756574493326713, 0.44943512237338007, 0.7453354875720895, 0.8961100065191605, 0.764705176183422, 0.3054658330024522, 0.6534990448531997, 0.5419538755819651, 0.6821429843462035, 0.22886930889651952, 0.04687458332360382, 0.4848554209160753, 0.34037497095976216, 0.6782156246458753, 0.9390632939995568, 0.6238798077786141, 0.06100183395955128, 0.3497603857268759, 0.031391336290835015, 0.7002010685909315, 0.5085624164978225, 0.8102626404747253, 0.3932598226761157, 0.8301070206855468, 0.7157716296326613, 0.41285351192640063, 0.24128986719101003, 0.12344777070004348, 0.3388513789691666, 0.652819515360238, 0.776348379026794, 0.7014037027960158, 0.6551960543038965, 0.9287499590930852, 0.5140929682406832, 0.3851172922162793, 0.46114653589389654, 0.5307220844267809, 0.8029845152759862, 0.4898820474146214, 0.3651840741103357, 0.20085936640134616, 0.6229332408184055, 0.9553624454452193, 0.23634185772774585, 0.9927228961782066, 0.4307747440074965, 0.38473919924266986, 0.5560290224159425, 0.6786008455401566, 0.08477588235290134, 0.08349926545230124, 0.38907153018213103, 0.22292410410692481, 0.5289487486478689, 0.8738599155752669, 0.4077705056811052, 0.783627637511617, 0.25516107760395135, 0.9453658726289468, 0.7833183142713315, 0.8412888306962346, 0.45354454112649106, 0.4689474308948278, 0.8867828132503736, 0.09085934974324061, 0.9000249050787436, 0.14244348770428472, 0.2451928421627676, 0.20740835782220815, 0.7790984933562084, 0.8118074707298233, 0.5998003755367903, 0.02567601501920147, 0.3641082220622991, 0.09831838478353527, 0.18565382901249272, 0.4580799313080407, 0.46420598252197354, 0.9778030962199832, 0.22820907963866455, 0.13801512636736735, 0.07655946518683926, 0.7886074561120071, 0.5508497499090068, 0.8074498379567538, 0.22179593020264582, 0.9021831302520196, 0.9823822501090487, 0.9291786598822139, 0.9831168785631749, 0.47942448766338386, 0.7574980937167866, 0.7759112040426837, 0.9088345647650637, 0.009583848801265726, 0.9114581474614898, 0.013486087961735338, 0.7731623364127765, 0.690162391810916, 0.4056836808173496, 0.8836113436746135, 0.46341785009102476, 0.1284540690317444, 0.09967973185758827, 0.22285274441023628, 0.34560612719418204, 0.7451735906670863, 0.7580113895817026, 0.5523963743955661, 0.8606579673583965, 0.4367947244385656, 0.38746199411002924, 0.19191341350175217, 0.6155984830789125, 0.639051726645097, 0.9813438999936714, 0.6339543148847726, 0.17914325975044154, 0.972664898893018, 0.7024559407189672, 0.07076693218273222, 0.5940366937612039, 0.6365902031133419, 0.14383349418156954, 0.7792581720386327, 0.023452355849703177, 0.7936285473851229, 0.25893441363785263, 0.43511592994275206, 0.08069192310173234, 0.9964384538293252, 0.15540427010508207, 0.3711486715528999, 0.3710602677974416, 0.3521956794334622, 0.18632607217410324, 0.37480840314546054, 0.1701405250208042, 0.5550485849622128, 0.2420938869646408, 0.941105238558126, 0.43466642060192695, 0.31443421138437183, 0.35208468351088035, 0.2952666172108646, 0.3912748615541244, 0.4709239008502488, 0.46591272054760463, 0.7748437729838096, 0.42510196014770757, 0.8951077784225099, 0.4741474331046945, 0.47125454296375835, 0.3275539316306959, 0.5611274741316956, 0.38724726632889916, 0.8128052744114037, 0.2581291024279142, 0.24831712872548423, 0.7782525243598281, 0.23905755421692776, 0.9448617209535339, 0.3609534558797899, 0.6251548466883767, 0.8703563931439493, 0.3653066488884912, 0.5074454832913808, 0.5545459454750572, 0.7556983902717127, 0.2143182469195442, 0.4649276822686905, 0.24464656179978134, 0.905974441027946, 0.582187762200639, 0.5247784652251575, 0.4085853488188045, 0.1934223651646736, 0.16045593370252453, 0.831000275924259, 0.6396018475421794, 0.9375619703230691, 0.5002637662852256, 0.5476311732033314, 0.08139551033755027, 0.5836974517980811, -0.018774103346248794, 0.7253658099925822, 0.5301278746851814, 0.41397883780435474, 0.079755424648987, 0.5201416939553656, 0.8679838328048046, 0.4530505473287546, 0.4170828510419219, 0.8940988809137498, 0.3376774621175984, 0.03192238999468955, 0.5606829116318647, 0.53099289095887, 0.945181042860197, 0.32703814962037214, 0.4515807101420475, 0.18599267767621475, -0.0671007150371763, 0.5276537483185783, 0.65186262493378, 0.9739556618260587, 0.78164945258074, 0.09688350976180926, 0.2786786153290932, 0.8405221798692657, 0.7202306958981639, 0.059256171703686245, 0.6572185461372831, 0.8667778250120419, 0.3466902041646015, 0.8206673467891968, 0.6508938983550964, 0.25024501339201755, 0.3626767885300298, 0.736503929319622, 0.493527600362611]	[0, 0, 0, 0, 0, 0, 0, 0, 0, 0, 0, 0, 0, 0, 0, 0, 0, 0, 0, 0, 0, 0, 0, 0, 0, 0, 0, 0, 0, 0, 0, 0, 0, 0, 0, 0, 0, 0, 0, 0, 0, 95, 19, 35, 99, 19, 16, 2, 88, 4, 16, 111, 16, 19, 19, 95, 84, 2, 88, 84, 16, 2, 16, 19, 88, 2, 84, 84, 117, 4, 95, 16, 84, 24, 107, 19, 57, 2, 2, 84, 70, 76, 51, 88, 68, 101, 95, 102, 52, 102, 76, 102, 102, 111, 102, 43, 101, 86, 107, 114, 88, 120, 106, 99, 76, 111, 95, 87, 76, 97, 76, 49, 101, 88, 111, 88, 102, 73, 81, 107, 65]	[91, 0, 18, 0, 11, 0, 0, 0, 0, 0, 0, 0, 0, 0, 0, 0, 14, 0, 0, 6, 0, 0, 0, 0, 10, 0, 0, 0, 0, 0, 0, 0, 0, 0, 0, 18, 0, 0, 0, 0, 0, 0, 0, 17, 0, 0, 0, 0, 0, 9, 0, 1, 8, 0, 0, 0, 0, 7, 0, 0, 0, 0, 0, 0, 0, 5, 0, 0, 7, 0, 1, 0, 0, 9, 0, 0, 6, 0, 0, 0, 0, 1, 0, 0, 6, 0, 2, 1, 7, 0, 0, 0, 0, 0, 0, 16, 0, 1, 0, 2, 0, 3, 7, 0, 0, 0, 8, 0, 0, 0, 0, 8, 0, 0, 3, 0, 0, 8, 0, 0, 4]	0.003800929090968027
GEN 5 time 1578998396
[0.8478153197408432, 0.6360210342781597, 0.10794068671966595, 0.41686011873566203, -0.061857641606069824, 0.3044593178012002, 0.19353231424773154, 0.5520751419515654, 0.13349162789246755, 0.36768902644107715, 0.5959829105719965, 0.5056928081221711, 0.33874105704985963, 0.22426445369251338, 0.43715744792617905, 0.779125141069541, 0.31836151693433795, 0.4030245450104438, 0.3452122283496827, 0.2756574493326713, 0.44943512237338007, 0.7453354875720895, 0.8961100065191605, 0.764705176183422, 0.3054658330024522, 0.6534990448531997, 0.5419538755819651, 0.6821429843462035, 0.22886930889651952, 0.04687458332360382, 0.4848554209160753, 0.34037497095976216, 0.6782156246458753, 0.9390632939995568, 0.6238798077786141, 0.06100183395955128, 0.3497603857268759, 0.031391336290835015, 0.7002010685909315, 0.5085624164978225, 0.8102626404747253, 0.3932598226761157, 0.8301070206855468, 0.7157716296326613, 0.41285351192640063, 0.24128986719101003, 0.12344777070004348, 0.3388513789691666, 0.652819515360238, 0.776348379026794, 0.7014037027960158, 0.6551960543038965, 0.9287499590930852, 0.5140929682406832, 0.3851172922162793, 0.46114653589389654, 0.5307220844267809, 0.8029845152759862, 0.4898820474146214, 0.3651840741103357, 0.20085936640134616, 0.6229332408184055, 0.9553624454452193, 0.23634185772774585, 0.9927228961782066, 0.4307747440074965, 0.38473919924266986, 0.5560290224159425, 0.6786008455401566, 0.08477588235290134, 0.08349926545230124, 0.38907153018213103, 0.22292410410692481, 0.5289487486478689, 0.8738599155752669, 0.4077705056811052, 0.783627637511617, 0.25516107760395135, 0.9453658726289468, 0.7833183142713315, 0.8412888306962346, 0.45354454112649106, 0.4689474308948278, 0.8867828132503736, 0.09085934974324061, 0.9000249050787436, 0.14244348770428472, 0.2451928421627676, 0.20740835782220815, 0.7790984933562084, 0.8118074707298233, 0.5998003755367903, 0.02567601501920147, 0.3641082220622991, 0.09831838478353527, 0.18565382901249272, 0.4580799313080407, 0.46420598252197354, 0.9778030962199832, 0.22820907963866455, 0.13801512636736735, 0.07655946518683926, 0.7886074561120071, 0.5508497499090068, 0.8074498379567538, 0.22179593020264582, 0.9021831302520196, 0.9823822501090487, 0.9291786598822139, 0.9831168785631749, 0.47942448766338386, 0.7574980937167866, 0.7759112040426837, 0.9088345647650637, 0.009583848801265726, 0.9114581474614898, 0.013486087961735338, 0.7731623364127765, 0.690162391810916, 0.4056836808173496, 0.8836113436746135, 0.46341785009102476, 0.1284540690317444, 0.09967973185758827, 0.22285274441023628, 0.34560612719418204, 0.7451735906670863, 0.7580113895817026, 0.5523963743955661, 0.8606579673583965, 0.4367947244385656, 0.38746199411002924, 0.19191341350175217, 0.6155984830789125, 0.639051726645097, 0.9813438999936714, 0.6339543148847726, 0.17914325975044154, 0.972664898893018, 0.7024559407189672, 0.07076693218273222, 0.5940366937612039, 0.6365902031133419, 0.14383349418156954, 0.7792581720386327, 0.023452355849703177, 0.7936285473851229, 0.25893441363785263, 0.43511592994275206, 0.08069192310173234, 0.9964384538293252, 0.15540427010508207, 0.3711486715528999, 0.3710602677974416, 0.3521956794334622, 0.18632607217410324, 0.37480840314546054, 0.1701405250208042, 0.5550485849622128, 0.2420938869646408, 0.941105238558126, 0.43466642060192695, 0.31443421138437183, 0.35208468351088035, 0.2952666172108646, 0.3912748615541244, 0.4709239008502488, 0.46591272054760463, 0.7748437729838096, 0.42510196014770757, 0.8951077784225099, 0.4741474331046945, 0.47125454296375835, 0.3275539316306959, 0.5611274741316956, 0.38724726632889916, 0.8128052744114037, 0.2581291024279142, 0.24831712872548423, 0.7782525243598281, 0.23905755421692776, 0.9448617209535339, 0.3609534558797899, 0.6251548466883767, 0.8703563931439493, 0.3653066488884912, 0.5074454832913808, 0.5545459454750572, 0.7556983902717127, 0.2143182469195442, 0.4649276822686905, 0.24464656179978134, 0.905974441027946, 0.582187762200639, 0.5247784652251575, 0.4085853488188045, 0.1934223651646736, 0.16045593370252453, 0.831000275924259, 0.6396018475421794, 0.9375619703230691, 0.5002637662852256, 0.5476311732033314, 0.08139551033755027, 0.5836974517980811, -0.018774103346248794, 0.7253658099925822, 0.5301278746851814, 0.41397883780435474, 0.079755424648987, 0.5201416939553656, 0.8679838328048046, 0.4530505473287546, 0.4170828510419219, 0.8940988809137498, 0.3376774621175984, 0.03192238999468955, 0.5606829116318647, 0.53099289095887, 0.945181042860197, 0.32703814962037214, 0.4515807101420475, 0.18599267767621475, -0.0671007150371763, 0.5276537483185783, 0.65186262493378, 0.9739556618260587, 0.78164945258074, 0.09688350976180926, 0.2786786153290932, 0.8405221798692657, 0.7202306958981639, 0.059256171703686245, 0.6572185461372831, 0.8667778250120419, 0.3466902041646015, 0.8206673467891968, 0.6508938983550964, 0.25024501339201755, 0.3626767885300298, 0.736503929319622, 0.493527600362611]	[0, 0, 0, 0, 0, 0, 0, 0, 0, 0, 0, 0, 0, 0, 0, 0, 0, 0, 0, 0, 0, 0, 0, 0, 0, 0, 0, 0, 0, 0, 0, 0, 0, 0, 0, 0, 0, 0, 0, 0, 0, 95, 19, 35, 99, 19, 16, 2, 88, 4, 16, 111, 16, 19, 19, 95, 84, 2, 88, 84, 16, 2, 16, 19, 88, 2, 84, 84, 117, 4, 95, 16, 84, 24, 107, 19, 57, 2, 2, 84, 70, 76, 51, 88, 68, 101, 95, 102, 52, 102, 76, 102, 102, 111, 102, 43, 101, 86, 107, 114, 88, 120, 106, 99, 76, 111, 95, 87, 76, 97, 76, 49, 101, 88, 111, 88, 102, 73, 81, 107, 65]	[91, 0, 18, 0, 11, 0, 0, 0, 0, 0, 0, 0, 0, 0, 0, 0, 14, 0, 0, 6, 0, 0, 0, 0, 10, 0, 0, 0, 0, 0, 0, 0, 0, 0, 0, 18, 0, 0, 0, 0, 0, 0, 0, 17, 0, 0, 0, 0, 0, 9, 0, 1, 8, 0, 0, 0, 0, 7, 0, 0, 0, 0, 0, 0, 0, 5, 0, 0, 7, 0, 1, 0, 0, 9, 0, 0, 6, 0, 0, 0, 0, 1, 0, 0, 6, 0, 2, 1, 7, 0, 0, 0, 0, 0, 0, 16, 0, 1, 0, 2, 0, 3, 7, 0, 0, 0, 8, 0, 0, 0, 0, 8, 0, 0, 3, 0, 0, 8, 0, 0, 4]	0.003800929090968027
GEN 6 time 1578998399
[0.8478153197408432, 0.6360210342781597, 0.10794068671966595, 0.41686011873566203, -0.061857641606069824, 0.3044593178012002, 0.19353231424773154, 0.5520751419515654, 0.13349162789246755, 0.36768902644107715, 0.5959829105719965, 0.5056928081221711, 0.33874105704985963, 0.22426445369251338, 0.43715744792617905, 0.779125141069541, 0.31836151693433795, 0.4030245450104438, 0.3452122283496827, 0.2756574493326713, 0.44943512237338007, 0.7453354875720895, 0.8961100065191605, 0.764705176183422, 0.3054658330024522, 0.6534990448531997, 0.5419538755819651, 0.6821429843462035, 0.22886930889651952, 0.04687458332360382, 0.4848554209160753, 0.34037497095976216, 0.6782156246458753, 0.9390632939995568, 0.6238798077786141, 0.06100183395955128, 0.3497603857268759, 0.031391336290835015, 0.7002010685909315, 0.5085624164978225, 0.8102626404747253, 0.3932598226761157, 0.8301070206855468, 0.7157716296326613, 0.41285351192640063, 0.24128986719101003, 0.12344777070004348, 0.3388513789691666, 0.652819515360238, 0.776348379026794, 0.7014037027960158, 0.6551960543038965, 0.9287499590930852, 0.5140929682406832, 0.3851172922162793, 0.46114653589389654, 0.5307220844267809, 0.8029845152759862, 0.4898820474146214, 0.3651840741103357, 0.20085936640134616, 0.6229332408184055, 0.9553624454452193, 0.23634185772774585, 0.9927228961782066, 0.4307747440074965, 0.38473919924266986, 0.5560290224159425, 0.6786008455401566, 0.08477588235290134, 0.08349926545230124, 0.38907153018213103, 0.22292410410692481, 0.5289487486478689, 0.8738599155752669, 0.4077705056811052, 0.783627637511617, 0.25516107760395135, 0.9453658726289468, 0.7833183142713315, 0.8412888306962346, 0.45354454112649106, 0.4689474308948278, 0.8867828132503736, 0.09085934974324061, 0.9000249050787436, 0.14244348770428472, 0.2451928421627676, 0.20740835782220815, 0.7790984933562084, 0.8118074707298233, 0.5998003755367903, 0.02567601501920147, 0.3641082220622991, 0.09831838478353527, 0.18565382901249272, 0.4580799313080407, 0.46420598252197354, 0.9778030962199832, 0.22820907963866455, 0.13801512636736735, 0.07655946518683926, 0.7886074561120071, 0.5508497499090068, 0.8074498379567538, 0.22179593020264582, 0.9021831302520196, 0.9823822501090487, 0.9291786598822139, 0.9831168785631749, 0.47942448766338386, 0.7574980937167866, 0.7759112040426837, 0.9088345647650637, 0.009583848801265726, 0.9114581474614898, 0.013486087961735338, 0.7731623364127765, 0.690162391810916, 0.4056836808173496, 0.8836113436746135, 0.46341785009102476, 0.1284540690317444, 0.09967973185758827, 0.22285274441023628, 0.34560612719418204, 0.7451735906670863, 0.7580113895817026, 0.5523963743955661, 0.8606579673583965, 0.4367947244385656, 0.38746199411002924, 0.19191341350175217, 0.6155984830789125, 0.639051726645097, 0.9813438999936714, 0.6339543148847726, 0.17914325975044154, 0.972664898893018, 0.7024559407189672, 0.07076693218273222, 0.5940366937612039, 0.6365902031133419, 0.14383349418156954, 0.7792581720386327, 0.023452355849703177, 0.7936285473851229, 0.25893441363785263, 0.43511592994275206, 0.08069192310173234, 0.9964384538293252, 0.15540427010508207, 0.3711486715528999, 0.3710602677974416, 0.3521956794334622, 0.18632607217410324, 0.37480840314546054, 0.1701405250208042, 0.5550485849622128, 0.2420938869646408, 0.941105238558126, 0.43466642060192695, 0.31443421138437183, 0.35208468351088035, 0.2952666172108646, 0.3912748615541244, 0.4709239008502488, 0.46591272054760463, 0.7748437729838096, 0.42510196014770757, 0.8951077784225099, 0.4741474331046945, 0.47125454296375835, 0.3275539316306959, 0.5611274741316956, 0.38724726632889916, 0.8128052744114037, 0.2581291024279142, 0.24831712872548423, 0.7782525243598281, 0.23905755421692776, 0.9448617209535339, 0.3609534558797899, 0.6251548466883767, 0.8703563931439493, 0.3653066488884912, 0.5074454832913808, 0.5545459454750572, 0.7556983902717127, 0.2143182469195442, 0.4649276822686905, 0.24464656179978134, 0.905974441027946, 0.582187762200639, 0.5247784652251575, 0.4085853488188045, 0.1934223651646736, 0.16045593370252453, 0.831000275924259, 0.6396018475421794, 0.9375619703230691, 0.5002637662852256, 0.5476311732033314, 0.08139551033755027, 0.5836974517980811, -0.018774103346248794, 0.7253658099925822, 0.5301278746851814, 0.41397883780435474, 0.079755424648987, 0.5201416939553656, 0.8679838328048046, 0.4530505473287546, 0.4170828510419219, 0.8940988809137498, 0.3376774621175984, 0.03192238999468955, 0.5606829116318647, 0.53099289095887, 0.945181042860197, 0.32703814962037214, 0.4515807101420475, 0.18599267767621475, -0.0671007150371763, 0.5276537483185783, 0.65186262493378, 0.9739556618260587, 0.78164945258074, 0.09688350976180926, 0.2786786153290932, 0.8405221798692657, 0.7202306958981639, 0.059256171703686245, 0.6572185461372831, 0.8667778250120419, 0.3466902041646015, 0.8206673467891968, 0.6508938983550964, 0.25024501339201755, 0.3626767885300298, 0.736503929319622, 0.493527600362611]	[0, 0, 0, 0, 0, 0, 0, 0, 0, 0, 0, 0, 0, 0, 0, 0, 0, 0, 0, 0, 0, 0, 0, 0, 0, 0, 0, 0, 0, 0, 0, 0, 0, 0, 0, 0, 0, 0, 0, 0, 0, 95, 19, 35, 99, 19, 16, 2, 88, 4, 16, 111, 16, 19, 19, 95, 84, 2, 88, 84, 16, 2, 16, 19, 88, 2, 84, 84, 117, 4, 95, 16, 84, 24, 107, 19, 57, 2, 2, 84, 70, 76, 51, 88, 68, 101, 95, 102, 52, 102, 76, 102, 102, 111, 102, 43, 101, 86, 107, 114, 88, 120, 106, 99, 76, 111, 95, 87, 76, 97, 76, 49, 101, 88, 111, 88, 102, 73, 81, 107, 65]	[91, 0, 18, 0, 11, 0, 0, 0, 0, 0, 0, 0, 0, 0, 0, 0, 14, 0, 0, 6, 0, 0, 0, 0, 10, 0, 0, 0, 0, 0, 0, 0, 0, 0, 0, 18, 0, 0, 0, 0, 0, 0, 0, 17, 0, 0, 0, 0, 0, 9, 0, 1, 8, 0, 0, 0, 0, 7, 0, 0, 0, 0, 0, 0, 0, 5, 0, 0, 7, 0, 1, 0, 0, 9, 0, 0, 6, 0, 0, 0, 0, 1, 0, 0, 6, 0, 2, 1, 7, 0, 0, 0, 0, 0, 0, 16, 0, 1, 0, 2, 0, 3, 7, 0, 0, 0, 8, 0, 0, 0, 0, 8, 0, 0, 3, 0, 0, 8, 0, 0, 4]	0.003800929090968027
GEN 7 time 1578998402
[0.8478153197408432, 0.6360210342781597, 0.10794068671966595, 0.41686011873566203, -0.2991206888476896, 0.3044593178012002, 0.19353231424773154, 0.5520751419515654, 0.13349162789246755, 0.36768902644107715, 0.9018536042620787, 0.548027123514867, 0.33874105704985963, 0.22426445369251338, 0.43715744792617905, 0.779125141069541, 0.31836151693433795, 0.4030245450104438, 0.3452122283496827, 0.2756574493326713, 0.44943512237338007, 0.7453354875720895, 0.8961100065191605, 0.7402449717187148, 0.3054658330024522, 0.6534990448531997, 0.5419538755819651, 0.8116226248864402, 0.22886930889651952, 0.04687458332360382, 0.4848554209160753, -0.02103743874553915, 0.6782156246458753, 0.8819731444149418, 0.6238798077786141, 0.06100183395955128, 0.3497603857268759, 0.031391336290835015, 0.7002010685909315, 0.5085624164978225, 0.8102626404747253, 0.28448778296821825, 0.8301070206855468, 0.7157716296326613, 0.41285351192640063, 0.24128986719101003, 0.12344777070004348, 0.3388513789691666, 0.4442365439568513, 0.776348379026794, 0.7014037027960158, 0.6551960543038965, 0.9287499590930852, 0.5140929682406832, 0.3851172922162793, 0.46114653589389654, 0.5307220844267809, 0.8029845152759862, 0.4898820474146214, 0.4491440776654131, 0.20085936640134616, 0.6229332408184055, 0.9553624454452193, 0.05649353814218036, 0.9927228961782066, 0.4307747440074965, 0.38473919924266986, 0.5560290224159425, 0.6786008455401566, 0.08477588235290134, 0.08349926545230124, 0.38907153018213103, -0.0007006465606404222, 0.5289487486478689, 0.8738599155752669, 0.4077705056811052, 0.783627637511617, 0.25516107760395135, 0.9453658726289468, 0.5053719026864725, 0.8412888306962346, 0.45354454112649106, 0.7169995938839878, 0.8867828132503736, 0.09085934974324061, 1.1206391988421969, 0.14244348770428472, 0.02249358586194375, 0.04155666949716613, 0.7790984933562084, 0.8118074707298233, 0.5998003755367903, 0.02567601501920147, 0.3641082220622991, 0.09831838478353527, 0.16362211785917938, 0.4580799313080407, 0.19895202669745105, 0.9778030962199832, 0.22820907963866455, 0.13801512636736735, 0.07655946518683926, 0.7886074561120071, 0.5508497499090068, 0.8074498379567538, 0.22179593020264582, 0.9021831302520196, 0.9823822501090487, 0.9291786598822139, 0.938909550255094, 0.47942448766338386, 0.7574980937167866, 0.7759112040426837, 0.9088345647650637, 0.009583848801265726, 0.9114581474614898, 0.013486087961735338, 0.7731623364127765, 0.690162391810916, 0.4056836808173496, 0.501819723407998, 0.46341785009102476, 0.1284540690317444, 0.09967973185758827, 0.22285274441023628, 0.05064664038142552, 0.7451735906670863, 0.5826121087578703, 0.5523963743955661, 0.8606579673583965, 0.4367947244385656, 0.38746199411002924, 0.19191341350175217, 0.482374990079949, 0.639051726645097, 0.9813438999936714, 0.4827830107697318, 0.17914325975044154, 0.972664898893018, 0.7024559407189672, 0.07076693218273222, 1.1798698312459952, 0.6365902031133419, 0.14383349418156954, 0.7792581720386327, 0.023452355849703177, 0.7354359930461307, 0.2997932291421406, 0.43511592994275206, 0.08069192310173234, 0.9247338731079221, 0.15540427010508207, 0.26925978585635113, 0.3710602677974416, 0.3521956794334622, 0.18632607217410324, 0.3532852356949663, 0.26638993377060477, 0.5550485849622128, 0.2420938869646408, 0.941105238558126, 0.43466642060192695, 0.31443421138437183, 0.35208468351088035, 0.2952666172108646, 0.12935689011950674, 0.4709239008502488, 0.46591272054760463, 0.7748437729838096, 0.42510196014770757, 0.8951077784225099, 0.4741474331046945, 0.47125454296375835, 0.3275539316306959, 0.5611274741316956, 0.38724726632889916, 0.8190295157386228, 0.2581291024279142, 0.24831712872548423, 0.7782525243598281, 0.13467947917452022, 1.0262514618924896, 0.3609534558797899, 0.6251548466883767, 0.7738526120838745, 0.3653066488884912, 0.5074454832913808, 0.753886138314929, 0.9224210933227278, -0.04135331954386989, 0.4649276822686905, 0.24464656179978134, 0.905974441027946, 0.582187762200639, 0.5247784652251575, 0.4085853488188045, 0.1934223651646736, 0.16045593370252453, 0.831000275924259, 0.6396018475421794, 0.9375619703230691, 0.5002637662852256, 0.5476311732033314, 0.39468489794660583, 0.5836974517980811, -0.018774103346248794, 0.9110124955128205, 0.4240423565609391, 0.41397883780435474, 0.079755424648987, 0.5201416939553656, 0.8679838328048046, 0.4530505473287546, 0.4170828510419219, 0.8940988809137498, 0.3376774621175984, 0.03192238999468955, 0.5606829116318647, 0.53099289095887, 0.945181042860197, 0.32703814962037214, 0.4515807101420475, 0.18599267767621475, -0.3175251849156881, 0.5383206619415483, 0.65186262493378, 0.9739556618260587, 0.8564849279108573, 0.09688350976180926, 0.2786786153290932, 0.6322845383017014, 0.7980589945712251, 0.059256171703686245, 0.6572185461372831, 0.8667778250120419, 0.15863373839654482, 1.0505462485464119, 0.6508938983550964, 0.25024501339201755, 0.3626767885300298, 0.736503929319622, 0.4091308466761624]	[0, 0, 0, 0, 0, 0, 0, 0, 0, 0, 0, 0, 0, 0, 0, 0, 0, 0, 0, 0, 0, 0, 0, 0, 0, 0, 0, 0, 0, 0, 0, 0, 0, 0, 0, 0, 0, 0, 0, 0, 0, 95, 19, 35, 73, 19, 16, 2, 88, 4, 16, 111, 16, 68, 19, 95, 68, 2, 88, 68, 16, 68, 16, 68, 88, 2, 68, 68, 117, 4, 95, 16, 68, 24, 107, 19, 57, 68, 2, 68, 4, 76, 86, 88, 68, 101, 95, 102, 52, 102, 76, 102, 102, 111, 102, 43, 101, 86, 107, 44, 88, 120, 106, 44, 76, 111, 95, 87, 76, 97, 76, 49, 101, 88, 111, 88, 102, 73, 81, 107, 65]	[91, 0, 16, 0, 8, 0, 0, 0, 0, 0, 0, 0, 0, 0, 0, 0, 14, 0, 0, 4, 0, 0, 0, 0, 17, 0, 0, 0, 0, 0, 0, 0, 0, 0, 0, 18, 0, 0, 0, 0, 0, 0, 0, 17, 2, 0, 0, 0, 0, 5, 0, 0, 8, 0, 0, 0, 0, 7, 0, 0, 0, 0, 0, 0, 0, 5, 0, 0, 11, 0, 0, 0, 0, 16, 0, 0, 6, 0, 0, 0, 0, 1, 0, 0, 0, 0, 3, 1, 7, 0, 0, 0, 0, 0, 0, 16, 0, 1, 0, 0, 0, 3, 7, 0, 0, 0, 8, 0, 0, 0, 0, 4, 0, 0, 0, 0, 0, 12, 0, 0, 4]	0.0038009041129436444
GEN 8 time 1578998405
[0.8478153197408432, 0.6360210342781597, 0.10794068671966595, 0.41686011873566203, -0.061857641606069824, 0.3044593178012002, 0.19353231424773154, 0.5520751419515654, 0.13349162789246755, 0.36768902644107715, 0.5959829105719965, 0.5056928081221711, 0.33874105704985963, 0.22426445369251338, 0.43715744792617905, 0.779125141069541, 0.31836151693433795, 0.4030245450104438, 0.3452122283496827, 0.2756574493326713, 0.44943512237338007, 0.7453354875720895, 0.8961100065191605, 0.764705176183422, 0.3054658330024522, 0.6534990448531997, 0.5419538755819651, 0.6821429843462035, 0.22886930889651952, 0.04687458332360382, 0.4848554209160753, 0.34037497095976216, 0.6782156246458753, 0.9390632939995568, 0.6238798077786141, 0.06100183395955128, 0.3497603857268759, 0.031391336290835015, 0.7002010685909315, 0.5085624164978225, 0.8102626404747253, 0.3932598226761157, 0.8301070206855468, 0.7157716296326613, 0.41285351192640063, 0.24128986719101003, 0.12344777070004348, 0.3388513789691666, 0.652819515360238, 0.776348379026794, 0.7014037027960158, 0.6551960543038965, 0.9287499590930852, 0.5140929682406832, 0.3851172922162793, 0.46114653589389654, 0.5307220844267809, 0.8029845152759862, 0.4898820474146214, 0.4071640758878744, 0.20085936640134616, 0.6229332408184055, 0.9553624454452193, 0.14641769793496312, 0.9927228961782066, 0.4307747440074965, 0.38473919924266986, 0.5560290224159425, 0.6786008455401566, 0.08477588235290134, 0.08349926545230124, 0.38907153018213103, 0.1111117287731422, 0.5289487486478689, 0.8738599155752669, 0.4077705056811052, 0.783627637511617, 0.25516107760395135, 0.9453658726289468, 0.644345108478902, 0.8412888306962346, 0.45354454112649106, 0.5929735123894078, 0.8867828132503736, 0.09085934974324061, 1.0103320519604702, 0.14244348770428472, 0.13384321401235566, 0.12448251365968714, 0.7790984933562084, 0.8118074707298233, 0.5998003755367903, 0.02567601501920147, 0.3641082220622991, 0.09831838478353527, 0.17463797343583604, 0.4580799313080407, 0.3315790046097123, 0.9778030962199832, 0.22820907963866455, 0.13801512636736735, 0.07655946518683926, 0.7886074561120071, 0.5508497499090068, 0.8074498379567538, 0.22179593020264582, 0.9021831302520196, 0.9823822501090487, 0.9291786598822139, 0.9610132144091345, 0.47942448766338386, 0.7574980937167866, 0.7759112040426837, 0.9088345647650637, 0.009583848801265726, 0.9114581474614898, 0.013486087961735338, 0.7731623364127765, 0.690162391810916, 0.4056836808173496, 0.6927155335413058, 0.46341785009102476, 0.1284540690317444, 0.09967973185758827, 0.22285274441023628, 0.19812638378780378, 0.7451735906670863, 0.6703117491697864, 0.5523963743955661, 0.8606579673583965, 0.4367947244385656, 0.38746199411002924, 0.19191341350175217, 0.5489867365794308, 0.639051726645097, 0.9813438999936714, 0.5583686628272522, 0.17914325975044154, 0.972664898893018, 0.7024559407189672, 0.07076693218273222, 0.8869532625035996, 0.6365902031133419, 0.14383349418156954, 0.7792581720386327, 0.023452355849703177, 0.7645322702156268, 0.2793638213899966, 0.43511592994275206, 0.08069192310173234, 0.9605861634686237, 0.15540427010508207, 0.3202042287046255, 0.3710602677974416, 0.3521956794334622, 0.18632607217410324, 0.36404681942021344, 0.21826522939570447, 0.5550485849622128, 0.2420938869646408, 0.941105238558126, 0.43466642060192695, 0.31443421138437183, 0.35208468351088035, 0.2952666172108646, 0.2603158758368156, 0.4709239008502488, 0.46591272054760463, 0.7748437729838096, 0.42510196014770757, 0.8951077784225099, 0.4741474331046945, 0.47125454296375835, 0.3275539316306959, 0.5611274741316956, 0.38724726632889916, 0.8159173950750133, 0.2581291024279142, 0.24831712872548423, 0.7782525243598281, 0.186868516695724, 0.9855565914230118, 0.3609534558797899, 0.6251548466883767, 0.8221045026139119, 0.3653066488884912, 0.5074454832913808, 0.6542160418949932, 0.8390597417972203, 0.08648246368783716, 0.4649276822686905, 0.24464656179978134, 0.905974441027946, 0.582187762200639, 0.5247784652251575, 0.4085853488188045, 0.1934223651646736, 0.16045593370252453, 0.831000275924259, 0.6396018475421794, 0.9375619703230691, 0.5002637662852256, 0.5476311732033314, 0.08139551033755027, 0.5836974517980811, 0.049578437927278826, 0.7253658099925822, 0.5301278746851814, 0.4183180247415319, 0.079755424648987, 0.5201416939553656, 0.8679838328048046, 0.4530505473287546, 0.4170828510419219, 0.8940988809137498, 0.3376774621175984, 0.03192238999468955, 0.5606829116318647, 0.53099289095887, 0.945181042860197, 0.32703814962037214, 0.4515807101420475, 0.18599267767621475, -0.0671007150371763, 0.5276537483185783, 0.65186262493378, 0.9739556618260587, 0.78164945258074, 0.09688350976180926, 0.2786786153290932, 0.8405221798692657, 0.7202306958981639, 0.059256171703686245, 0.6572185461372831, 0.8667778250120419, 0.3466902041646015, 0.8206673467891968, 0.6508938983550964, 0.25024501339201755, 0.3626767885300298, 0.736503929319622, 0.493527600362611]	[0, 0, 0, 0, 0, 0, 0, 0, 0, 0, 0, 0, 0, 0, 0, 0, 0, 0, 0, 0, 0, 0, 0, 0, 0, 0, 0, 0, 0, 0, 0, 0, 0, 0, 0, 0, 0, 0, 0, 0, 0, 95, 19, 35, 73, 19, 16, 2, 88, 4, 16, 111, 16, 19, 19, 95, 24, 2, 88, 24, 16, 68, 16, 19, 88, 2, 24, 24, 59, 4, 95, 16, 84, 24, 107, 19, 57, 68, 2, 84, 4, 76, 51, 88, 68, 101, 95, 102, 52, 102, 76, 102, 102, 111, 102, 43, 101, 86, 107, 44, 88, 120, 106, 44, 76, 111, 95, 87, 76, 97, 76, 49, 101, 88, 111, 88, 102, 84, 81, 107, 65]	[91, 0, 16, 0, 9, 0, 0, 0, 0, 0, 0, 0, 0, 0, 0, 0, 14, 0, 0, 6, 0, 0, 0, 0, 15, 0, 0, 0, 0, 0, 0, 0, 0, 0, 0, 17, 0, 0, 0, 0, 0, 0, 0, 16, 2, 0, 0, 0, 0, 6, 0, 1, 8, 0, 0, 0, 0, 7, 0, 7, 0, 0, 0, 0, 0, 5, 0, 0, 6, 0, 0, 0, 0, 3, 0, 0, 6, 0, 0, 0, 0, 1, 0, 0, 3, 0, 2, 1, 7, 0, 0, 0, 0, 0, 0, 15, 0, 1, 0, 0, 0, 3, 7, 0, 0, 0, 8, 0, 0, 0, 0, 5, 0, 0, 0, 0, 0, 0, 0, 0, 4]	0.0036009041129436443
GEN 9 time 1578998408
[0.8478153197408432, 0.6360210342781597, 0.10794068671966595, 0.41686011873566203, -0.2991206888476896, 0.3044593178012002, 0.19353231424773154, 0.5520751419515654, 0.13349162789246755, 0.36768902644107715, 0.9018536042620787, 0.548027123514867, 0.33874105704985963, 0.22426445369251338, 0.43715744792617905, 0.779125141069541, 0.31836151693433795, 0.4030245450104438, 0.3452122283496827, 0.2756574493326713, 0.44943512237338007, 0.7453354875720895, 0.8961100065191605, 0.7402449717187148, 0.3054658330024522, 0.6534990448531997, 0.5419538755819651, 0.8116226248864402, 0.22886930889651952, 0.04687458332360382, 0.4848554209160753, -0.02103743874553915, 0.6782156246458753, 0.8819731444149418, 0.6238798077786141, 0.06100183395955128, 0.3497603857268759, 0.031391336290835015, 0.7002010685909315, 0.5085624164978225, 0.8102626404747253, 0.28448778296821825, 0.8301070206855468, 0.7157716296326613, 0.41285351192640063, 0.24128986719101003, 0.12344777070004348, 0.3388513789691666, 0.4442365439568513, 0.776348379026794, 0.7014037027960158, 0.6551960543038965, 0.9287499590930852, 0.5140929682406832, 0.3851172922162793, 0.46114653589389654, 0.5307220844267809, 0.8029845152759862, 0.4898820474146214, 0.4491440776654131, 0.20085936640134616, 0.6229332408184055, 0.9553624454452193, 0.05649353814218036, 0.9927228961782066, 0.4307747440074965, 0.38473919924266986, 0.5560290224159425, 0.6786008455401566, 0.08477588235290134, 0.08349926545230124, 0.38907153018213103, 0.05520554110625089, 0.5289487486478689, 0.8738599155752669, 0.4077705056811052, 0.783627637511617, 0.25516107760395135, 0.9453658726289468, 0.5053719026864725, 0.8412888306962346, 0.45354454112649106, 0.7169995938839878, 0.8867828132503736, 0.09085934974324061, 1.1206391988421969, 0.14244348770428472, 0.02249358586194375, 0.04155666949716613, 0.7790984933562084, 0.8118074707298233, 0.5998003755367903, 0.02567601501920147, 0.3641082220622991, 0.09831838478353527, 0.16362211785917938, 0.4580799313080407, 0.19895202669745105, 0.9778030962199832, 0.22820907963866455, 0.13801512636736735, 0.07655946518683926, 0.7886074561120071, 0.5508497499090068, 0.8074498379567538, 0.22179593020264582, 0.9021831302520196, 0.9823822501090487, 0.9291786598822139, 0.9610132144091345, 0.47942448766338386, 0.7574980937167866, 0.7759112040426837, 0.9088345647650637, 0.009583848801265726, 0.9114581474614898, 0.013486087961735338, 0.7731623364127765, 0.690162391810916, 0.4056836808173496, 0.6927155335413058, 0.46341785009102476, 0.1284540690317444, 0.09967973185758827, 0.22285274441023628, 0.19812638378780378, 0.7451735906670863, 0.6703117491697864, 0.5523963743955661, 0.8606579673583965, 0.4367947244385656, 0.38746199411002924, 0.19191341350175217, 0.5489867365794308, 0.639051726645097, 0.9813438999936714, 0.5583686628272522, 0.17914325975044154, 0.972664898893018, 0.7024559407189672, 0.07076693218273222, 0.8869532625035996, 0.6365902031133419, 0.14383349418156954, 0.7792581720386327, 0.023452355849703177, 0.7645322702156268, 0.2793638213899966, 0.43511592994275206, 0.08069192310173234, 0.9605861634686237, 0.15540427010508207, 0.3202042287046255, 0.3710602677974416, 0.3521956794334622, 0.18632607217410324, 0.36404681942021344, 0.21826522939570447, 0.5550485849622128, 0.2420938869646408, 0.941105238558126, 0.43466642060192695, 0.31443421138437183, 0.35208468351088035, 0.2952666172108646, 0.2603158758368156, 0.4709239008502488, 0.46591272054760463, 0.7748437729838096, 0.42510196014770757, 0.8951077784225099, 0.4741474331046945, 0.47125454296375835, 0.3275539316306959, 0.5611274741316956, 0.38724726632889916, 0.8159173950750133, 0.2581291024279142, 0.24831712872548423, 0.7782525243598281, 0.186868516695724, 0.9855565914230118, 0.3609534558797899, 0.6251548466883767, 0.8221045026139119, 0.3653066488884912, 0.5074454832913808, 0.6542160418949932, 0.8390597417972203, 0.08648246368783716, 0.4649276822686905, 0.24464656179978134, 0.905974441027946, 0.582187762200639, 0.5247784652251575, 0.4085853488188045, 0.1934223651646736, 0.16045593370252453, 0.831000275924259, 0.6396018475421794, 0.9375619703230691, 0.5002637662852256, 0.5476311732033314, 0.23804020414207805, 0.5836974517980811, -0.018774103346248794, 0.8181891527527013, 0.4770851156230602, 0.41397883780435474, 0.079755424648987, 0.5201416939553656, 0.8679838328048046, 0.4530505473287546, 0.4170828510419219, 0.8940988809137498, 0.3376774621175984, 0.03192238999468955, 0.5606829116318647, 0.53099289095887, 0.945181042860197, 0.32703814962037214, 0.4515807101420475, 0.18599267767621475, -0.1923129499764322, 0.5329872051300633, 0.65186262493378, 0.9739556618260587, 0.8190671902457987, 0.09688350976180926, 0.2786786153290932, 0.7364033590854835, 0.7591448452346945, 0.059256171703686245, 0.6572185461372831, 0.8667778250120419, 0.15863373839654482, 1.0505462485464119, 0.6508938983550964, 0.25024501339201755, 0.3626767885300298, 0.736503929319622, 0.4091308466761624]	[0, 0, 0, 0, 0, 0, 0, 0, 0, 0, 0, 0, 0, 0, 0, 0, 0, 0, 0, 0, 0, 0, 0, 0, 0, 0, 0, 0, 0, 0, 0, 0, 0, 0, 0, 0, 0, 0, 0, 0, 0, 95, 19, 35, 99, 19, 16, 2, 88, 4, 16, 111, 16, 19, 19, 95, 84, 2, 88, 84, 16, 68, 16, 19, 88, 2, 84, 84, 117, 4, 95, 16, 84, 24, 107, 19, 57, 68, 2, 84, 4, 76, 51, 88, 68, 101, 95, 102, 52, 102, 76, 102, 102, 111, 102, 43, 101, 86, 107, 114, 88, 120, 106, 114, 76, 111, 95, 87, 76, 97, 76, 49, 101, 88, 111, 88, 102, 73, 81, 107, 65]	[91, 0, 16, 0, 12, 0, 0, 0, 0, 0, 0, 0, 0, 0, 0, 0, 14, 0, 0, 6, 0, 0, 0, 0, 12, 0, 0, 0, 0, 0, 0, 0, 0, 0, 0, 17, 0, 0, 0, 0, 0, 0, 0, 16, 0, 0, 0, 0, 0, 9, 0, 1, 8, 0, 0, 0, 0, 7, 0, 0, 0, 0, 0, 0, 0, 5, 0, 0, 9, 0, 0, 0, 0, 11, 0, 0, 6, 0, 0, 0, 0, 1, 0, 0, 6, 0, 2, 1, 7, 0, 0, 0, 0, 0, 0, 15, 0, 1, 0, 1, 0, 3, 7, 0, 0, 0, 8, 0, 0, 0, 0, 8, 0, 0, 3, 0, 0, 10, 0, 0, 4]	0.0036009041129436443
GEN 10 time 1578998411
[0.8478153197408432, 0.6360210342781597, 0.10794068671966595, 0.41686011873566203, -0.061857641606069824, 0.3044593178012002, 0.19353231424773154, 0.5520751419515654, 0.13349162789246755, 0.36768902644107715, 0.5959829105719965, 0.5056928081221711, 0.33874105704985963, 0.22426445369251338, 0.43715744792617905, 0.779125141069541, 0.31836151693433795, 0.4030245450104438, 0.3452122283496827, 0.2756574493326713, 0.44943512237338007, 0.7453354875720895, 0.8961100065191605, 0.764705176183422, 0.3054658330024522, 0.6534990448531997, 0.5419538755819651, 0.6821429843462035, 0.22886930889651952, 0.04687458332360382, 0.4848554209160753, 0.34037497095976216, 0.6782156246458753, 0.9390632939995568, 0.6238798077786141, 0.06100183395955128, 0.3497603857268759, 0.031391336290835015, 0.7002010685909315, 0.5085624164978225, 0.8102626404747253, 0.3932598226761157, 0.8301070206855468, 0.7157716296326613, 0.41285351192640063, 0.24128986719101003, 0.12344777070004348, 0.3388513789691666, 0.652819515360238, 0.776348379026794, 0.7014037027960158, 0.6551960543038965, 0.9287499590930852, 0.5140929682406832, 0.3851172922162793, 0.46114653589389654, 0.5307220844267809, 0.8029845152759862, 0.4898820474146214, 0.3651840741103357, 0.20085936640134616, 0.6229332408184055, 0.9553624454452193, 0.23634185772774585, 0.9927228961782066, 0.4307747440074965, 0.38473919924266986, 0.5560290224159425, 0.6786008455401566, 0.08477588235290134, 0.08349926545230124, 0.38907153018213103, 0.22292410410692481, 0.5289487486478689, 0.8738599155752669, 0.4077705056811052, 0.783627637511617, 0.25516107760395135, 0.9453658726289468, 0.7833183142713315, 0.8412888306962346, 0.45354454112649106, 0.4689474308948278, 0.8867828132503736, 0.09085934974324061, 0.9000249050787436, 0.14244348770428472, 0.2451928421627676, 0.20740835782220815, 0.7790984933562084, 0.8118074707298233, 0.5998003755367903, 0.02567601501920147, 0.3641082220622991, 0.09831838478353527, 0.18565382901249272, 0.4580799313080407, 0.46420598252197354, 0.9778030962199832, 0.22820907963866455, 0.13801512636736735, 0.07655946518683926, 0.7886074561120071, 0.5508497499090068, 0.8074498379567538, 0.22179593020264582, 0.9021831302520196, 0.9823822501090487, 0.9291786598822139, 0.9610132144091345, 0.47942448766338386, 0.7574980937167866, 0.7759112040426837, 0.9088345647650637, 0.009583848801265726, 0.9114581474614898, 0.013486087961735338, 0.7731623364127765, 0.690162391810916, 0.4056836808173496, 0.6927155335413058, 0.46341785009102476, 0.1284540690317444, 0.09967973185758827, 0.22285274441023628, 0.19812638378780378, 0.7451735906670863, 0.6703117491697864, 0.5523963743955661, 0.8606579673583965, 0.4367947244385656, 0.38746199411002924, 0.19191341350175217, 0.5489867365794308, 0.639051726645097, 0.9813438999936714, 0.5583686628272522, 0.17914325975044154, 0.972664898893018, 0.7024559407189672, 0.07076693218273222, 0.8869532625035996, 0.6365902031133419, 0.14383349418156954, 0.7792581720386327, 0.023452355849703177, 0.7645322702156268, 0.2793638213899966, 0.43511592994275206, 0.08069192310173234, 0.9605861634686237, 0.15540427010508207, 0.3202042287046255, 0.3710602677974416, 0.3521956794334622, 0.18632607217410324, 0.36404681942021344, 0.21826522939570447, 0.5550485849622128, 0.2420938869646408, 0.941105238558126, 0.43466642060192695, 0.31443421138437183, 0.35208468351088035, 0.2870008931022586, 0.2908206547743823, 0.4681301363107062, 0.46617781066514685, 0.7748437729838096, 0.42510196014770757, 0.8951077784225099, 0.4741474331046945, 0.47125454296375835, 0.3275539316306959, 0.5611274741316956, 0.38724726632889916, 0.8159173950750133, 0.2581291024279142, 0.24831712872548423, 0.7782525243598281, 0.186868516695724, 0.9855565914230118, 0.3609534558797899, 0.6251548466883767, 0.8221045026139119, 0.3653066488884912, 0.5074454832913808, 0.6542160418949932, 0.8390597417972203, 0.08648246368783716, 0.4649276822686905, 0.24464656179978134, 0.905974441027946, 0.582187762200639, 0.5247784652251575, 0.4085853488188045, 0.1934223651646736, 0.16045593370252453, 0.831000275924259, 0.6396018475421794, 0.9375619703230691, 0.5002637662852256, 0.5476311732033314, 0.23804020414207805, 0.5836974517980811, -0.018774103346248794, 0.8181891527527013, 0.4770851156230602, 0.41397883780435474, 0.079755424648987, 0.5201416939553656, 0.8679838328048046, 0.4530505473287546, 0.4170828510419219, 0.8940988809137498, 0.3376774621175984, 0.03192238999468955, 0.5606829116318647, 0.53099289095887, 0.945181042860197, 0.32703814962037214, 0.4515807101420475, 0.18599267767621475, -0.1923129499764322, 0.5329872051300633, 0.65186262493378, 0.9739556618260587, 0.8190671902457987, 0.09688350976180926, 0.2786786153290932, 0.7364033590854835, 0.7591448452346945, 0.059256171703686245, 0.6572185461372831, 0.8667778250120419, 0.3466902041646015, 0.8206673467891968, 0.6508938983550964, 0.25024501339201755, 0.3626767885300298, 0.736503929319622, 0.493527600362611]	[0, 0, 0, 0, 0, 0, 0, 0, 0, 0, 0, 0, 0, 0, 0, 0, 0, 0, 0, 0, 0, 0, 0, 0, 0, 0, 0, 0, 0, 0, 0, 0, 0, 0, 0, 0, 0, 0, 0, 0, 0, 95, 19, 35, 73, 19, 16, 2, 88, 4, 16, 111, 16, 19, 19, 95, 84, 2, 88, 84, 16, 68, 16, 19, 88, 2, 84, 84, 117, 4, 95, 16, 84, 24, 107, 19, 57, 68, 2, 84, 4, 76, 51, 88, 68, 101, 95, 102, 52, 102, 76, 102, 102, 111, 102, 43, 101, 86, 107, 44, 88, 120, 106, 44, 76, 111, 95, 87, 76, 97, 76, 49, 101, 88, 111, 88, 102, 73, 81, 107, 65]	[91, 0, 16, 0, 9, 0, 0, 0, 0, 0, 0, 0, 0, 0, 0, 0, 14, 0, 0, 6, 0, 0, 0, 0, 15, 0, 0, 0, 0, 0, 0, 0, 0, 0, 0, 17, 0, 0, 0, 0, 0, 0, 0, 16, 2, 0, 0, 0, 0, 6, 0, 1, 8, 0, 0, 0, 0, 7, 0, 0, 0, 0, 0, 0, 0, 5, 0, 0, 9, 0, 0, 0, 0, 14, 0, 0, 6, 0, 0, 0, 0, 1, 0, 0, 6, 0, 2, 1, 7, 0, 0, 0, 0, 0, 0, 15, 0, 1, 0, 0, 0, 3, 7, 0, 0, 0, 8, 0, 0, 0, 0, 5, 0, 0, 0, 0, 0, 10, 0, 0, 4]	0.0036009041129436443
GEN 11 time 1578998414
[0.8478153197408432, 0.6360210342781597, 0.10794068671966595, 0.41686011873566203, -0.061857641606069824, 0.3044593178012002, 0.19353231424773154, 0.5520751419515654, 0.13349162789246755, 0.36768902644107715, 0.5959829105719965, 0.5056928081221711, 0.33874105704985963, 0.22426445369251338, 0.43715744792617905, 0.779125141069541, 0.31836151693433795, 0.4030245450104438, 0.3452122283496827, 0.2756574493326713, 0.44943512237338007, 0.7453354875720895, 0.8961100065191605, 0.764705176183422, 0.3054658330024522, 0.6534990448531997, 0.5419538755819651, 0.6821429843462035, 0.22886930889651952, 0.04687458332360382, 0.4848554209160753, 0.34037497095976216, 0.6782156246458753, 0.9390632939995568, 0.6238798077786141, 0.06100183395955128, 0.3497603857268759, 0.031391336290835015, 0.7002010685909315, 0.5085624164978225, 0.8102626404747253, 0.3660668127491413, 0.8301070206855468, 0.7157716296326613, 0.41285351192640063, 0.24128986719101003, 0.12344777070004348, 0.3388513789691666, 0.6006737725093914, 0.776348379026794, 0.7014037027960158, 0.6551960543038965, 0.9287499590930852, 0.5140929682406832, 0.3851172922162793, 0.46114653589389654, 0.5307220844267809, 0.8029845152759862, 0.4898820474146214, 0.41765907633225907, 0.20085936640134616, 0.6229332408184055, 0.9553624454452193, 0.12393665798676742, 0.9927228961782066, 0.4307747440074965, 0.38473919924266986, 0.5560290224159425, 0.6786008455401566, 0.08477588235290134, 0.08349926545230124, 0.38907153018213103, 0.1111117287731422, 0.5289487486478689, 0.8738599155752669, 0.4077705056811052, 0.783627637511617, 0.25516107760395135, 0.9453658726289468, 0.644345108478902, 0.8412888306962346, 0.45354454112649106, 0.5929735123894078, 0.8867828132503736, 0.09085934974324061, 1.0103320519604702, 0.14244348770428472, 0.13384321401235566, 0.12448251365968714, 0.7790984933562084, 0.8118074707298233, 0.5998003755367903, 0.02567601501920147, 0.3641082220622991, 0.09831838478353527, 0.16913004564750772, 0.4580799313080407, 0.2652655156535817, 0.9778030962199832, 0.22820907963866455, 0.13801512636736735, 0.07655946518683926, 0.7886074561120071, 0.5508497499090068, 0.8074498379567538, 0.22179593020264582, 0.9021831302520196, 0.9823822501090487, 0.9291786598822139, 0.9499613823321142, 0.47942448766338386, 0.7574980937167866, 0.7759112040426837, 0.9088345647650637, 0.009583848801265726, 0.9114581474614898, 0.013486087961735338, 0.7731623364127765, 0.690162391810916, 0.4056836808173496, 0.6927155335413058, 0.46341785009102476, 0.1284540690317444, 0.09967973185758827, 0.22285274441023628, 0.19812638378780378, 0.7451735906670863, 0.6703117491697864, 0.5523963743955661, 0.8606579673583965, 0.4367947244385656, 0.38746199411002924, 0.19191341350175217, 0.5489867365794308, 0.639051726645097, 0.9813438999936714, 0.5583686628272522, 0.17914325975044154, 0.972664898893018, 0.7024559407189672, 0.07076693218273222, 0.8869532625035996, 0.6365902031133419, 0.14383349418156954, 0.7792581720386327, 0.023452355849703177, 0.7645322702156268, 0.2793638213899966, 0.43511592994275206, 0.08069192310173234, 0.9605861634686237, 0.15540427010508207, 0.3202042287046255, 0.3710602677974416, 0.3521956794334622, 0.18632607217410324, 0.36404681942021344, 0.21826522939570447, 0.5550485849622128, 0.2420938869646408, 0.941105238558126, 0.43466642060192695, 0.31443421138437183, 0.35208468351088035, 0.2952666172108646, 0.2603158758368156, 0.4709239008502488, 0.46591272054760463, 0.7748437729838096, 0.42510196014770757, 0.8951077784225099, 0.4741474331046945, 0.47125454296375835, 0.3275539316306959, 0.5611274741316956, 0.38724726632889916, 0.8159173950750133, 0.2581291024279142, 0.24831712872548423, 0.7782525243598281, 0.186868516695724, 0.9855565914230118, 0.3609534558797899, 0.6251548466883767, 0.8221045026139119, 0.3653066488884912, 0.5074454832913808, 0.6542160418949932, 0.8390597417972203, 0.08648246368783716, 0.4649276822686905, 0.24464656179978134, 0.905974441027946, 0.582187762200639, 0.5247784652251575, 0.4085853488188045, 0.1934223651646736, 0.16045593370252453, 0.831000275924259, 0.6396018475421794, 0.9375619703230691, 0.5002637662852256, 0.5476311732033314, 0.15971785723981416, 0.5836974517980811, -0.018774103346248794, 0.7717774813726417, 0.5036064951541208, 0.41397883780435474, 0.079755424648987, 0.5201416939553656, 0.8679838328048046, 0.4530505473287546, 0.4170828510419219, 0.8940988809137498, 0.3376774621175984, 0.03192238999468955, 0.5606829116318647, 0.53099289095887, 0.945181042860197, 0.32703814962037214, 0.4515807101420475, 0.18599267767621475, -0.1923129499764322, 0.5329872051300633, 0.65186262493378, 0.9739556618260587, 0.8190671902457987, 0.09688350976180926, 0.2786786153290932, 0.7364033590854835, 0.7591448452346945, 0.059256171703686245, 0.6572185461372831, 0.8667778250120419, 0.25266197128057316, 0.8206673467891968, 0.6508938983550964, 0.25024501339201755, 0.3626767885300298, 0.736503929319622, 0.493527600362611]	[0, 0, 0, 0, 0, 0, 0, 0, 0, 0, 0, 0, 0, 0, 0, 0, 0, 0, 0, 0, 0, 0, 0, 0, 0, 0, 0, 0, 0, 0, 0, 0, 0, 0, 0, 0, 0, 0, 0, 0, 0, 95, 19, 35, 99, 19, 16, 2, 88, 4, 16, 111, 16, 19, 19, 95, 84, 2, 88, 84, 16, 68, 16, 19, 88, 2, 84, 84, 117, 4, 95, 16, 84, 24, 107, 19, 57, 68, 2, 84, 4, 76, 51, 88, 68, 101, 95, 102, 52, 102, 76, 102, 102, 111, 102, 43, 101, 86, 107, 114, 88, 120, 106, 114, 76, 111, 95, 87, 76, 97, 76, 49, 101, 88, 111, 88, 102, 73, 81, 107, 65]	[91, 0, 16, 0, 12, 0, 0, 0, 0, 0, 0, 0, 0, 0, 0, 0, 14, 0, 0, 6, 0, 0, 0, 0, 12, 0, 0, 0, 0, 0, 0, 0, 0, 0, 0, 17, 0, 0, 0, 0, 0, 0, 0, 16, 0, 0, 0, 0, 0, 9, 0, 1, 8, 0, 0, 0, 0, 7, 0, 0, 0, 0, 0, 0, 0, 5, 0, 0, 9, 0, 0, 0, 0, 11, 0, 0, 6, 0, 0, 0, 0, 1, 0, 0, 6, 0, 2, 1, 7, 0, 0, 0, 0, 0, 0, 15, 0, 1, 0, 1, 0, 3, 7, 0, 0, 0, 8, 0, 0, 0, 0, 8, 0, 0, 3, 0, 0, 10, 0, 0, 4]	0.0036009041129436443
GEN 12 time 1578998417
[0.8478153197408432, 0.6360210342781597, 0.10794068671966595, 0.41686011873566203, -0.061857641606069824, 0.3044593178012002, 0.19353231424773154, 0.5520751419515654, 0.13349162789246755, 0.36768902644107715, 0.5959829105719965, 0.5056928081221711, 0.33874105704985963, 0.22426445369251338, 0.43715744792617905, 0.779125141069541, 0.31836151693433795, 0.4030245450104438, 0.3452122283496827, 0.2756574493326713, 0.44943512237338007, 0.7453354875720895, 0.8961100065191605, 0.764705176183422, 0.3054658330024522, 0.6534990448531997, 0.5419538755819651, 0.6821429843462035, 0.22886930889651952, 0.04687458332360382, 0.4848554209160753, 0.34037497095976216, 0.6782156246458753, 0.9390632939995568, 0.6238798077786141, 0.06100183395955128, 0.3497603857268759, 0.031391336290835015, 0.7002010685909315, 0.5085624164978225, 0.8102626404747253, 0.3932598226761157, 0.8301070206855468, 0.7157716296326613, 0.41285351192640063, 0.24128986719101003, 0.12344777070004348, 0.3388513789691666, 0.652819515360238, 0.776348379026794, 0.7014037027960158, 0.6551960543038965, 0.9287499590930852, 0.5140929682406832, 0.3851172922162793, 0.46114653589389654, 0.5307220844267809, 0.8029845152759862, 0.4898820474146214, 0.3651840741103357, 0.20085936640134616, 0.6229332408184055, 0.9553624454452193, 0.23634185772774585, 0.9927228961782066, 0.4307747440074965, 0.38473919924266986, 0.5560290224159425, 0.6786008455401566, 0.08477588235290134, 0.08349926545230124, 0.38907153018213103, 0.22292410410692481, 0.5289487486478689, 0.8738599155752669, 0.4077705056811052, 0.783627637511617, 0.25516107760395135, 0.9453658726289468, 0.7833183142713315, 0.8412888306962346, 0.45354454112649106, 0.4689474308948278, 0.8867828132503736, 0.09085934974324061, 0.9000249050787436, 0.14244348770428472, 0.2451928421627676, 0.20740835782220815, 0.7790984933562084, 0.8118074707298233, 0.5998003755367903, 0.02567601501920147, 0.3641082220622991, 0.09831838478353527, 0.18565382901249272, 0.4580799313080407, 0.46420598252197354, 0.9778030962199832, 0.22820907963866455, 0.13801512636736735, 0.07655946518683926, 0.7886074561120071, 0.5508497499090068, 0.8074498379567538, 0.22179593020264582, 0.9021831302520196, 0.9823822501090487, 0.9291786598822139, 0.9610132144091345, 0.47942448766338386, 0.7574980937167866, 0.7759112040426837, 0.9088345647650637, 0.009583848801265726, 0.9114581474614898, 0.013486087961735338, 0.7731623364127765, 0.690162391810916, 0.4056836808173496, 0.6927155335413058, 0.46341785009102476, 0.1284540690317444, 0.09967973185758827, 0.22285274441023628, 0.19812638378780378, 0.7451735906670863, 0.6703117491697864, 0.5523963743955661, 0.8606579673583965, 0.4367947244385656, 0.38746199411002924, 0.19191341350175217, 0.5489867365794308, 0.639051726645097, 0.9813438999936714, 0.5583686628272522, 0.17914325975044154, 0.972664898893018, 0.7024559407189672, 0.07076693218273222, 0.8869532625035996, 0.6365902031133419, 0.14383349418156954, 0.7792581720386327, 0.023452355849703177, 0.7645322702156268, 0.2793638213899966, 0.43511592994275206, 0.08069192310173234, 0.9605861634686237, 0.15540427010508207, 0.3202042287046255, 0.3710602677974416, 0.3521956794334622, 0.18632607217410324, 0.36404681942021344, 0.21826522939570447, 0.5550485849622128, 0.2420938869646408, 0.941105238558126, 0.43466642060192695, 0.31443421138437183, 0.35208468351088035, 0.2870008931022586, 0.2908206547743823, 0.4681301363107062, 0.46617781066514685, 0.7748437729838096, 0.42510196014770757, 0.8951077784225099, 0.4741474331046945, 0.47125454296375835, 0.3275539316306959, 0.5611274741316956, 0.38724726632889916, 0.8159173950750133, 0.2581291024279142, 0.24831712872548423, 0.7782525243598281, 0.186868516695724, 0.9855565914230118, 0.3609534558797899, 0.6251548466883767, 0.8221045026139119, 0.3653066488884912, 0.5074454832913808, 0.6542160418949932, 0.8390597417972203, 0.08648246368783716, 0.4649276822686905, 0.24464656179978134, 0.905974441027946, 0.582187762200639, 0.5247784652251575, 0.4085853488188045, 0.1934223651646736, 0.16045593370252453, 0.831000275924259, 0.6396018475421794, 0.9375619703230691, 0.5002637662852256, 0.5476311732033314, 0.23804020414207805, 0.5836974517980811, -0.018774103346248794, 0.8181891527527013, 0.4770851156230602, 0.41397883780435474, 0.079755424648987, 0.5201416939553656, 0.8679838328048046, 0.4530505473287546, 0.4170828510419219, 0.8940988809137498, 0.3376774621175984, 0.03192238999468955, 0.5606829116318647, 0.53099289095887, 0.945181042860197, 0.32703814962037214, 0.4515807101420475, 0.18599267767621475, -0.1923129499764322, 0.5329872051300633, 0.65186262493378, 0.9739556618260587, 0.8190671902457987, 0.09688350976180926, 0.2786786153290932, 0.7364033590854835, 0.7591448452346945, 0.059256171703686245, 0.6572185461372831, 0.8667778250120419, 0.3466902041646015, 0.8206673467891968, 0.6508938983550964, 0.25024501339201755, 0.3626767885300298, 0.736503929319622, 0.493527600362611]	[0, 0, 0, 0, 0, 0, 0, 0, 0, 0, 0, 0, 0, 0, 0, 0, 0, 0, 0, 0, 0, 0, 0, 0, 0, 0, 0, 0, 0, 0, 0, 0, 0, 0, 0, 0, 0, 0, 0, 0, 0, 95, 19, 35, 73, 19, 16, 2, 88, 4, 16, 111, 16, 19, 19, 95, 84, 2, 88, 84, 16, 68, 16, 19, 88, 2, 84, 84, 117, 4, 95, 16, 84, 24, 107, 19, 57, 68, 2, 84, 4, 76, 51, 88, 68, 101, 95, 102, 52, 102, 76, 102, 102, 111, 102, 43, 101, 86, 107, 44, 88, 120, 106, 44, 76, 111, 95, 87, 76, 97, 76, 49, 101, 88, 111, 88, 102, 73, 81, 107, 65]	[91, 0, 16, 0, 9, 0, 0, 0, 0, 0, 0, 0, 0, 0, 0, 0, 14, 0, 0, 6, 0, 0, 0, 0, 15, 0, 0, 0, 0, 0, 0, 0, 0, 0, 0, 17, 0, 0, 0, 0, 0, 0, 0, 16, 2, 0, 0, 0, 0, 6, 0, 1, 8, 0, 0, 0, 0, 7, 0, 0, 0, 0, 0, 0, 0, 5, 0, 0, 9, 0, 0, 0, 0, 14, 0, 0, 6, 0, 0, 0, 0, 1, 0, 0, 6, 0, 2, 1, 7, 0, 0, 0, 0, 0, 0, 15, 0, 1, 0, 0, 0, 3, 7, 0, 0, 0, 8, 0, 0, 0, 0, 5, 0, 0, 0, 0, 0, 10, 0, 0, 4]	0.0036009041129436443
GEN 13 time 1578998420
[0.8478153197408432, 0.6360210342781597, 0.10794068671966595, 0.41686011873566203, -0.061857641606069824, 0.3044593178012002, 0.19353231424773154, 0.5520751419515654, 0.13349162789246755, 0.36768902644107715, 0.5959829105719965, 0.5056928081221711, 0.33874105704985963, 0.22426445369251338, 0.43715744792617905, 0.779125141069541, 0.31836151693433795, 0.4030245450104438, 0.3452122283496827, 0.2756574493326713, 0.44943512237338007, 0.7453354875720895, 0.8961100065191605, 0.764705176183422, 0.3054658330024522, 0.6534990448531997, 0.5419538755819651, 0.6821429843462035, 0.22886930889651952, 0.04687458332360382, 0.4848554209160753, 0.34037497095976216, 0.6782156246458753, 0.9390632939995568, 0.6238798077786141, 0.06100183395955128, 0.3497603857268759, 0.031391336290835015, 0.7002010685909315, 0.5085624164978225, 0.8102626404747253, 0.3932598226761157, 0.8301070206855468, 0.7157716296326613, 0.41285351192640063, 0.24128986719101003, 0.12344777070004348, 0.3388513789691666, 0.652819515360238, 0.776348379026794, 0.7014037027960158, 0.6551960543038965, 0.9287499590930852, 0.5140929682406832, 0.3851172922162793, 0.46114653589389654, 0.5307220844267809, 0.8029845152759862, 0.4898820474146214, 0.3651840741103357, 0.20085936640134616, 0.6229332408184055, 0.9553624454452193, 0.23634185772774585, 0.9927228961782066, 0.4307747440074965, 0.38473919924266986, 0.5560290224159425, 0.6786008455401566, 0.08477588235290134, 0.08349926545230124, 0.38907153018213103, 0.22292410410692481, 0.5289487486478689, 0.8738599155752669, 0.4077705056811052, 0.783627637511617, 0.25516107760395135, 0.9453658726289468, 0.7833183142713315, 0.8412888306962346, 0.45354454112649106, 0.4689474308948278, 0.8867828132503736, 0.09085934974324061, 0.9000249050787436, 0.14244348770428472, 0.2451928421627676, 0.20740835782220815, 0.7790984933562084, 0.8118074707298233, 0.5998003755367903, 0.02567601501920147, 0.3641082220622991, 0.09831838478353527, 0.18565382901249272, 0.4580799313080407, 0.46420598252197354, 0.9778030962199832, 0.22820907963866455, 0.13801512636736735, 0.07655946518683926, 0.7886074561120071, 0.5508497499090068, 0.8074498379567538, 0.22179593020264582, 0.9021831302520196, 0.9823822501090487, 0.9291786598822139, 0.9610132144091345, 0.47942448766338386, 0.7574980937167866, 0.7759112040426837, 0.9088345647650637, 0.009583848801265726, 0.9114581474614898, 0.013486087961735338, 0.7731623364127765, 0.690162391810916, 0.4056836808173496, 0.6927155335413058, 0.46341785009102476, 0.1284540690317444, 0.09967973185758827, 0.22285274441023628, 0.19812638378780378, 0.7451735906670863, 0.6703117491697864, 0.5523963743955661, 0.8606579673583965, 0.4367947244385656, 0.38746199411002924, 0.19191341350175217, 0.5156808633296899, 0.639051726645097, 0.9813438999936714, 0.520575836798492, 0.17914325975044154, 0.972664898893018, 0.7024559407189672, 0.07076693218273222, 1.0334115468747975, 0.6365902031133419, 0.14383349418156954, 0.7792581720386327, 0.023452355849703177, 0.7499841316308787, 0.28957852526606864, 0.43511592994275206, 0.08069192310173234, 0.942660018288273, 0.15540427010508207, 0.2947320072804883, 0.3710602677974416, 0.3521956794334622, 0.18632607217410324, 0.35866602755758986, 0.24232758158315462, 0.5550485849622128, 0.2420938869646408, 0.941105238558126, 0.43466642060192695, 0.31443421138437183, 0.35208468351088035, 0.2911337551565616, 0.21008877244694452, 0.4695270185804775, 0.4660452656063757, 0.7748437729838096, 0.42510196014770757, 0.8951077784225099, 0.4741474331046945, 0.47125454296375835, 0.3275539316306959, 0.5611274741316956, 0.38724726632889916, 0.817473455406818, 0.2581291024279142, 0.24831712872548423, 0.7782525243598281, 0.1607739979351221, 1.0059040266577508, 0.3609534558797899, 0.6251548466883767, 0.7979785573488931, 0.3653066488884912, 0.5074454832913808, 0.704051090104961, 0.880740417559974, 0.022564572071983632, 0.4649276822686905, 0.24464656179978134, 0.905974441027946, 0.582187762200639, 0.5247784652251575, 0.4085853488188045, 0.1934223651646736, 0.16045593370252453, 0.831000275924259, 0.6396018475421794, 0.9375619703230691, 0.5002637662852256, 0.5476311732033314, 0.15971785723981416, 0.5836974517980811, 0.015402167290515016, 0.7717774813726417, 0.5036064951541208, 0.4161484312729433, 0.079755424648987, 0.5201416939553656, 0.8679838328048046, 0.4530505473287546, 0.4170828510419219, 0.8940988809137498, 0.3376774621175984, 0.03192238999468955, 0.5606829116318647, 0.53099289095887, 0.945181042860197, 0.32703814962037214, 0.4515807101420475, 0.18599267767621475, -0.1923129499764322, 0.5329872051300633, 0.65186262493378, 0.9739556618260587, 0.8190671902457987, 0.09688350976180926, 0.2786786153290932, 0.7364033590854835, 0.7591448452346945, 0.059256171703686245, 0.6572185461372831, 0.8667778250120419, 0.3466902041646015, 0.8206673467891968, 0.6508938983550964, 0.25024501339201755, 0.3626767885300298, 0.736503929319622, 0.493527600362611]	[0, 0, 0, 0, 0, 0, 0, 0, 0, 0, 0, 0, 0, 0, 0, 0, 0, 0, 0, 0, 0, 0, 0, 0, 0, 0, 0, 0, 0, 0, 0, 0, 0, 0, 0, 0, 0, 0, 0, 0, 0, 95, 19, 35, 73, 19, 16, 2, 88, 4, 16, 111, 16, 68, 19, 95, 84, 2, 88, 84, 16, 68, 16, 68, 88, 2, 84, 84, 117, 4, 95, 16, 84, 24, 107, 19, 57, 68, 2, 84, 4, 76, 51, 88, 68, 101, 95, 102, 52, 102, 76, 102, 102, 111, 102, 43, 101, 86, 107, 44, 88, 120, 106, 44, 76, 111, 95, 87, 76, 97, 76, 49, 101, 88, 111, 88, 102, 73, 81, 107, 65]	[91, 0, 16, 0, 9, 0, 0, 0, 0, 0, 0, 0, 0, 0, 0, 0, 14, 0, 0, 4, 0, 0, 0, 0, 17, 0, 0, 0, 0, 0, 0, 0, 0, 0, 0, 17, 0, 0, 0, 0, 0, 0, 0, 16, 2, 0, 0, 0, 0, 6, 0, 1, 8, 0, 0, 0, 0, 7, 0, 0, 0, 0, 0, 0, 0, 5, 0, 0, 11, 0, 0, 0, 0, 16, 0, 0, 6, 0, 0, 0, 0, 1, 0, 0, 6, 0, 2, 1, 7, 0, 0, 0, 0, 0, 0, 15, 0, 1, 0, 0, 0, 3, 7, 0, 0, 0, 8, 0, 0, 0, 0, 5, 0, 0, 0, 0, 0, 12, 0, 0, 4]	0.0036009041129436443
GEN 14 time 1578998423
[0.8478153197408432, 0.6360210342781597, 0.10794068671966595, 0.41686011873566203, -0.061857641606069824, 0.3044593178012002, 0.19353231424773154, 0.5520751419515654, 0.13349162789246755, 0.36768902644107715, 0.5959829105719965, 0.5056928081221711, 0.33874105704985963, 0.22426445369251338, 0.43715744792617905, 0.779125141069541, 0.31836151693433795, 0.4030245450104438, 0.3452122283496827, 0.2756574493326713, 0.44943512237338007, 0.7453354875720895, 0.8961100065191605, 0.764705176183422, 0.3054658330024522, 0.6534990448531997, 0.5419538755819651, 0.6821429843462035, 0.22886930889651952, 0.04687458332360382, 0.4848554209160753, 0.34037497095976216, 0.6782156246458753, 0.9390632939995568, 0.6238798077786141, 0.06100183395955128, 0.3497603857268759, 0.031391336290835015, 0.7002010685909315, 0.5085624164978225, 0.8102626404747253, 0.3932598226761157, 0.8301070206855468, 0.7157716296326613, 0.41285351192640063, 0.24128986719101003, 0.12344777070004348, 0.3388513789691666, 0.652819515360238, 0.776348379026794, 0.7014037027960158, 0.6551960543038965, 0.9287499590930852, 0.5140929682406832, 0.3851172922162793, 0.46114653589389654, 0.5307220844267809, 0.8029845152759862, 0.4898820474146214, 0.3651840741103357, 0.20085936640134616, 0.6229332408184055, 0.9553624454452193, 0.23634185772774585, 0.9927228961782066, 0.4307747440074965, 0.38473919924266986, 0.5560290224159425, 0.6786008455401566, 0.08477588235290134, 0.08349926545230124, 0.38907153018213103, 0.22292410410692481, 0.5289487486478689, 0.8738599155752669, 0.4077705056811052, 0.783627637511617, 0.25516107760395135, 0.9453658726289468, 0.7833183142713315, 0.8412888306962346, 0.45354454112649106, 0.4689474308948278, 0.8867828132503736, 0.09085934974324061, 0.9000249050787436, 0.14244348770428472, 0.2451928421627676, 0.20740835782220815, 0.7790984933562084, 0.8118074707298233, 0.5998003755367903, 0.02567601501920147, 0.3641082220622991, 0.09831838478353527, 0.18565382901249272, 0.4580799313080407, 0.46420598252197354, 0.9778030962199832, 0.22820907963866455, 0.13801512636736735, 0.07655946518683926, 0.7886074561120071, 0.5508497499090068, 0.8074498379567538, 0.22179593020264582, 0.9021831302520196, 0.9823822501090487, 0.9291786598822139, 0.9610132144091345, 0.47942448766338386, 0.7574980937167866, 0.7759112040426837, 0.9088345647650637, 0.009583848801265726, 0.9114581474614898, 0.013486087961735338, 0.7731623364127765, 0.690162391810916, 0.4056836808173496, 0.6927155335413058, 0.46341785009102476, 0.1284540690317444, 0.09967973185758827, 0.22285274441023628, 0.19812638378780378, 0.7451735906670863, 0.6703117491697864, 0.5523963743955661, 0.8606579673583965, 0.4367947244385656, 0.38746199411002924, 0.19191341350175217, 0.5489867365794308, 0.639051726645097, 0.9813438999936714, 0.5583686628272522, 0.17914325975044154, 0.972664898893018, 0.7024559407189672, 0.07076693218273222, 0.8869532625035996, 0.6365902031133419, 0.14383349418156954, 0.7792581720386327, 0.023452355849703177, 0.7645322702156268, 0.2793638213899966, 0.43511592994275206, 0.08069192310173234, 0.9605861634686237, 0.15540427010508207, 0.3202042287046255, 0.3710602677974416, 0.3521956794334622, 0.18632607217410324, 0.36404681942021344, 0.21826522939570447, 0.5550485849622128, 0.2420938869646408, 0.941105238558126, 0.43466642060192695, 0.31443421138437183, 0.35208468351088035, 0.2870008931022586, 0.2908206547743823, 0.4681301363107062, 0.46617781066514685, 0.7748437729838096, 0.42510196014770757, 0.8951077784225099, 0.4741474331046945, 0.47125454296375835, 0.3275539316306959, 0.5611274741316956, 0.38724726632889916, 0.8159173950750133, 0.2581291024279142, 0.24831712872548423, 0.7782525243598281, 0.186868516695724, 0.9855565914230118, 0.3609534558797899, 0.6251548466883767, 0.8221045026139119, 0.3653066488884912, 0.5074454832913808, 0.6542160418949932, 0.8390597417972203, 0.08648246368783716, 0.4649276822686905, 0.24464656179978134, 0.905974441027946, 0.582187762200639, 0.5247784652251575, 0.4085853488188045, 0.1934223651646736, 0.16045593370252453, 0.831000275924259, 0.6396018475421794, 0.9375619703230691, 0.5002637662852256, 0.5476311732033314, 0.23804020414207805, 0.5836974517980811, -0.018774103346248794, 0.8181891527527013, 0.4770851156230602, 0.41397883780435474, 0.079755424648987, 0.5201416939553656, 0.8679838328048046, 0.4530505473287546, 0.4170828510419219, 0.8940988809137498, 0.3376774621175984, 0.03192238999468955, 0.5606829116318647, 0.53099289095887, 0.945181042860197, 0.32703814962037214, 0.4515807101420475, 0.18599267767621475, -0.1923129499764322, 0.5329872051300633, 0.65186262493378, 0.9739556618260587, 0.8190671902457987, 0.09688350976180926, 0.2786786153290932, 0.7364033590854835, 0.7591448452346945, 0.059256171703686245, 0.6572185461372831, 0.8667778250120419, 0.3466902041646015, 0.8206673467891968, 0.6508938983550964, 0.25024501339201755, 0.3626767885300298, 0.736503929319622, 0.493527600362611]	[0, 0, 0, 0, 0, 0, 0, 0, 0, 0, 0, 0, 0, 0, 0, 0, 0, 0, 0, 0, 0, 0, 0, 0, 0, 0, 0, 0, 0, 0, 0, 0, 0, 0, 0, 0, 0, 0, 0, 0, 0, 95, 19, 35, 73, 19, 16, 2, 88, 4, 16, 111, 16, 19, 19, 95, 84, 2, 88, 84, 16, 68, 16, 19, 88, 2, 84, 84, 117, 4, 95, 16, 84, 24, 107, 19, 57, 68, 2, 84, 4, 76, 51, 88, 68, 101, 95, 102, 52, 102, 76, 102, 102, 111, 102, 43, 101, 86, 107, 44, 88, 120, 106, 44, 76, 111, 95, 87, 76, 97, 76, 49, 101, 88, 111, 88, 102, 73, 81, 107, 65]	[91, 0, 16, 0, 9, 0, 0, 0, 0, 0, 0, 0, 0, 0, 0, 0, 14, 0, 0, 6, 0, 0, 0, 0, 15, 0, 0, 0, 0, 0, 0, 0, 0, 0, 0, 17, 0, 0, 0, 0, 0, 0, 0, 16, 2, 0, 0, 0, 0, 6, 0, 1, 8, 0, 0, 0, 0, 7, 0, 0, 0, 0, 0, 0, 0, 5, 0, 0, 9, 0, 0, 0, 0, 14, 0, 0, 6, 0, 0, 0, 0, 1, 0, 0, 6, 0, 2, 1, 7, 0, 0, 0, 0, 0, 0, 15, 0, 1, 0, 0, 0, 3, 7, 0, 0, 0, 8, 0, 0, 0, 0, 5, 0, 0, 0, 0, 0, 10, 0, 0, 4]	0.0036009041129436443
GEN 15 time 1578998426
[0.8478153197408432, 0.6360210342781597, 0.10794068671966595, 0.41686011873566203, -0.061857641606069824, 0.3044593178012002, 0.19353231424773154, 0.5520751419515654, 0.13349162789246755, 0.36768902644107715, 0.5959829105719965, 0.5056928081221711, 0.33874105704985963, 0.22426445369251338, 0.43715744792617905, 0.779125141069541, 0.31836151693433795, 0.4030245450104438, 0.3452122283496827, 0.2756574493326713, 0.44943512237338007, 0.7453354875720895, 0.8961100065191605, 0.764705176183422, 0.3054658330024522, 0.6534990448531997, 0.5419538755819651, 0.6821429843462035, 0.22886930889651952, 0.04687458332360382, 0.4848554209160753, 0.34037497095976216, 0.6782156246458753, 0.9390632939995568, 0.6238798077786141, 0.06100183395955128, 0.3497603857268759, 0.031391336290835015, 0.7002010685909315, 0.5085624164978225, 0.8102626404747253, 0.3932598226761157, 0.8301070206855468, 0.7157716296326613, 0.41285351192640063, 0.24128986719101003, 0.12344777070004348, 0.3388513789691666, 0.652819515360238, 0.776348379026794, 0.7014037027960158, 0.6551960543038965, 0.9287499590930852, 0.5140929682406832, 0.3851172922162793, 0.46114653589389654, 0.5307220844267809, 0.8029845152759862, 0.4898820474146214, 0.3651840741103357, 0.20085936640134616, 0.6229332408184055, 0.9553624454452193, 0.23634185772774585, 0.9927228961782066, 0.4307747440074965, 0.38473919924266986, 0.5560290224159425, 0.6786008455401566, 0.08477588235290134, 0.08349926545230124, 0.38907153018213103, 0.22292410410692481, 0.5289487486478689, 0.8738599155752669, 0.4077705056811052, 0.783627637511617, 0.25516107760395135, 0.9453658726289468, 0.7833183142713315, 0.8412888306962346, 0.45354454112649106, 0.4689474308948278, 0.8867828132503736, 0.09085934974324061, 0.9000249050787436, 0.14244348770428472, 0.2451928421627676, 0.20740835782220815, 0.7790984933562084, 0.8118074707298233, 0.5998003755367903, 0.02567601501920147, 0.3641082220622991, 0.09831838478353527, 0.18565382901249272, 0.4580799313080407, 0.46420598252197354, 0.9778030962199832, 0.22820907963866455, 0.13801512636736735, 0.07655946518683926, 0.7886074561120071, 0.5508497499090068, 0.8074498379567538, 0.22179593020264582, 0.9021831302520196, 0.9823822501090487, 0.9291786598822139, 0.9610132144091345, 0.47942448766338386, 0.7574980937167866, 0.7759112040426837, 0.9088345647650637, 0.009583848801265726, 0.9114581474614898, 0.013486087961735338, 0.7731623364127765, 0.690162391810916, 0.4056836808173496, 0.6927155335413058, 0.46341785009102476, 0.1284540690317444, 0.09967973185758827, 0.22285274441023628, 0.19812638378780378, 0.7451735906670863, 0.6703117491697864, 0.5523963743955661, 0.8606579673583965, 0.4367947244385656, 0.38746199411002924, 0.19191341350175217, 0.5489867365794308, 0.639051726645097, 0.9813438999936714, 0.5583686628272522, 0.17914325975044154, 0.972664898893018, 0.7024559407189672, 0.07076693218273222, 0.8869532625035996, 0.6365902031133419, 0.14383349418156954, 0.7792581720386327, 0.023452355849703177, 0.7645322702156268, 0.2793638213899966, 0.43511592994275206, 0.08069192310173234, 0.9605861634686237, 0.15540427010508207, 0.3202042287046255, 0.3710602677974416, 0.3521956794334622, 0.18632607217410324, 0.36404681942021344, 0.21826522939570447, 0.5550485849622128, 0.2420938869646408, 0.941105238558126, 0.43466642060192695, 0.31443421138437183, 0.35208468351088035, 0.2870008931022586, 0.2908206547743823, 0.4681301363107062, 0.46617781066514685, 0.7748437729838096, 0.42510196014770757, 0.8951077784225099, 0.4741474331046945, 0.47125454296375835, 0.3275539316306959, 0.5611274741316956, 0.38724726632889916, 0.8159173950750133, 0.2581291024279142, 0.24831712872548423, 0.7782525243598281, 0.186868516695724, 0.9855565914230118, 0.3609534558797899, 0.6251548466883767, 0.8221045026139119, 0.3653066488884912, 0.5074454832913808, 0.6542160418949932, 0.8390597417972203, 0.08648246368783716, 0.4649276822686905, 0.24464656179978134, 0.905974441027946, 0.582187762200639, 0.5247784652251575, 0.4085853488188045, 0.1934223651646736, 0.16045593370252453, 0.831000275924259, 0.6396018475421794, 0.9375619703230691, 0.5002637662852256, 0.5476311732033314, 0.23804020414207805, 0.5836974517980811, -0.018774103346248794, 0.8181891527527013, 0.4770851156230602, 0.41397883780435474, 0.079755424648987, 0.5201416939553656, 0.8679838328048046, 0.4530505473287546, 0.4170828510419219, 0.8940988809137498, 0.3376774621175984, 0.03192238999468955, 0.5606829116318647, 0.53099289095887, 0.945181042860197, 0.32703814962037214, 0.4515807101420475, 0.18599267767621475, -0.1923129499764322, 0.5329872051300633, 0.65186262493378, 0.9739556618260587, 0.8190671902457987, 0.09688350976180926, 0.2786786153290932, 0.7364033590854835, 0.7591448452346945, 0.059256171703686245, 0.6572185461372831, 0.8667778250120419, 0.3466902041646015, 0.8206673467891968, 0.6508938983550964, 0.25024501339201755, 0.3626767885300298, 0.736503929319622, 0.493527600362611]	[0, 0, 0, 0, 0, 0, 0, 0, 0, 0, 0, 0, 0, 0, 0, 0, 0, 0, 0, 0, 0, 0, 0, 0, 0, 0, 0, 0, 0, 0, 0, 0, 0, 0, 0, 0, 0, 0, 0, 0, 0, 95, 19, 35, 73, 19, 16, 2, 88, 4, 16, 111, 16, 19, 19, 95, 84, 2, 88, 84, 16, 68, 16, 19, 88, 2, 84, 84, 117, 4, 95, 16, 84, 24, 107, 19, 57, 68, 2, 84, 4, 76, 51, 88, 68, 101, 95, 102, 52, 102, 76, 102, 102, 111, 102, 43, 101, 86, 107, 44, 88, 120, 106, 44, 76, 111, 95, 87, 76, 97, 76, 49, 101, 88, 111, 88, 102, 73, 81, 107, 65]	[91, 0, 16, 0, 9, 0, 0, 0, 0, 0, 0, 0, 0, 0, 0, 0, 14, 0, 0, 6, 0, 0, 0, 0, 15, 0, 0, 0, 0, 0, 0, 0, 0, 0, 0, 17, 0, 0, 0, 0, 0, 0, 0, 16, 2, 0, 0, 0, 0, 6, 0, 1, 8, 0, 0, 0, 0, 7, 0, 0, 0, 0, 0, 0, 0, 5, 0, 0, 9, 0, 0, 0, 0, 14, 0, 0, 6, 0, 0, 0, 0, 1, 0, 0, 6, 0, 2, 1, 7, 0, 0, 0, 0, 0, 0, 15, 0, 1, 0, 0, 0, 3, 7, 0, 0, 0, 8, 0, 0, 0, 0, 5, 0, 0, 0, 0, 0, 10, 0, 0, 4]	0.0036009041129436443
GEN 16 time 1578998429
[0.8478153197408432, 0.6360210342781597, 0.10794068671966595, 0.41686011873566203, -0.2991206888476896, 0.3044593178012002, 0.19353231424773154, 0.5520751419515654, 0.13349162789246755, 0.36768902644107715, 0.9018536042620787, 0.548027123514867, 0.33874105704985963, 0.22426445369251338, 0.43715744792617905, 0.779125141069541, 0.31836151693433795, 0.4030245450104438, 0.3452122283496827, 0.2756574493326713, 0.44943512237338007, 0.7453354875720895, 0.8961100065191605, 0.7402449717187148, 0.3054658330024522, 0.6534990448531997, 0.5419538755819651, 0.8116226248864402, 0.22886930889651952, 0.04687458332360382, 0.4848554209160753, -0.02103743874553915, 0.6782156246458753, 0.8819731444149418, 0.6238798077786141, 0.06100183395955128, 0.3497603857268759, 0.031391336290835015, 0.7002010685909315, 0.5085624164978225, 0.8102626404747253, 0.28448778296821825, 0.8301070206855468, 0.7157716296326613, 0.41285351192640063, 0.24128986719101003, 0.12344777070004348, 0.3388513789691666, 0.4442365439568513, 0.776348379026794, 0.7014037027960158, 0.6551960543038965, 0.9287499590930852, 0.5140929682406832, 0.3851172922162793, 0.46114653589389654, 0.5307220844267809, 0.8029845152759862, 0.4898820474146214, 0.4491440776654131, 0.20085936640134616, 0.6229332408184055, 0.9553624454452193, 0.05649353814218036, 0.9927228961782066, 0.4307747440074965, 0.38473919924266986, 0.5560290224159425, 0.6786008455401566, 0.08477588235290134, 0.08349926545230124, 0.38907153018213103, 0.06918208802297371, 0.5289487486478689, 0.8738599155752669, 0.4077705056811052, 0.783627637511617, 0.25516107760395135, 0.9453658726289468, 0.5922301563067409, 0.8412888306962346, 0.45354454112649106, 0.6394832929498753, 0.8867828132503736, 0.09085934974324061, 0.9965436586002543, 0.14244348770428472, 0.14776191753115714, 0.13484824418000227, 0.7790984933562084, 0.8118074707298233, 0.5998003755367903, 0.02567601501920147, 0.3641082220622991, 0.09831838478353527, 0.1744658506924508, 0.4580799313080407, 0.32950670807983323, 0.9778030962199832, 0.22820907963866455, 0.13801512636736735, 0.07655946518683926, 0.7886074561120071, 0.5508497499090068, 0.8074498379567538, 0.22179593020264582, 0.9021831302520196, 0.9823822501090487, 0.9291786598822139, 0.9541058193609968, 0.47942448766338386, 0.7574980937167866, 0.7759112040426837, 0.9088345647650637, 0.009583848801265726, 0.9114581474614898, 0.013486087961735338, 0.7731623364127765, 0.690162391810916, 0.4056836808173496, 0.6569225691413105, 0.46341785009102476, 0.1284540690317444, 0.09967973185758827, 0.22285274441023628, 0.17047393189910787, 0.7451735906670863, 0.6483868390668074, 0.5523963743955661, 0.8606579673583965, 0.4367947244385656, 0.38746199411002924, 0.19191341350175217, 0.5323337999545603, 0.639051726645097, 0.9813438999936714, 0.5394722498128721, 0.17914325975044154, 0.972664898893018, 0.7024559407189672, 0.07076693218273222, 1.0151042613283978, 0.6365902031133419, 0.14383349418156954, 0.7792581720386327, 0.023452355849703177, 0.7554396836001592, 0.2857480113125416, 0.43511592994275206, 0.08069192310173234, 0.9516230908784483, 0.15540427010508207, 0.3074681179925569, 0.3710602677974416, 0.3521956794334622, 0.18632607217410324, 0.3613564234889016, 0.23029640548942953, 0.5550485849622128, 0.2420938869646408, 0.941105238558126, 0.43466642060192695, 0.31443421138437183, 0.35208468351088035, 0.2947500094540767, 0.2294826780910863, 0.4707492905665274, 0.465929288679951, 0.7748437729838096, 0.42510196014770757, 0.8951077784225099, 0.4741474331046945, 0.47125454296375835, 0.3275539316306959, 0.5611274741316956, 0.38724726632889916, 0.8163064101579645, 0.2581291024279142, 0.24831712872548423, 0.7782525243598281, 0.1803448870055735, 0.9906434502316965, 0.3609534558797899, 0.6251548466883767, 0.8160730162976573, 0.3653066488884912, 0.5074454832913808, 0.6666748039474851, 0.8494799107379087, 0.07050299078387377, 0.47808432115614297, 0.24464656179978134, 0.905974441027946, 0.582187762200639, 0.5247784652251575, 0.4085853488188045, 0.1934223651646736, 0.16045593370252453, 0.831000275924259, 0.6396018475421794, 0.9375619703230691, 0.5002637662852256, 0.5476311732033314, 0.17929844396538014, 0.5836974517980811, -0.0016859680278668888, 0.7833803992176567, 0.49697615027135567, 0.41506363453864903, 0.079755424648987, 0.5201416939553656, 0.8679838328048046, 0.4530505473287546, 0.4170828510419219, 0.8940988809137498, 0.3376774621175984, 0.03192238999468955, 0.5606829116318647, 0.53099289095887, 0.945181042860197, 0.32703814962037214, 0.4515807101420475, 0.18599267767621475, -0.1923129499764322, 0.5329872051300633, 0.65186262493378, 0.9739556618260587, 0.8190671902457987, 0.09688350976180926, 0.2786786153290932, 0.7364033590854835, 0.7980589945712251, 0.059256171703686245, 0.6572185461372831, 0.8667778250120419, 0.15863373839654482, 1.0505462485464119, 0.6508938983550964, 0.25024501339201755, 0.3626767885300298, 0.736503929319622, 0.4091308466761624]	[0, 0, 0, 0, 0, 0, 0, 0, 0, 0, 0, 0, 0, 0, 0, 0, 0, 0, 0, 0, 0, 0, 0, 0, 0, 0, 0, 0, 0, 0, 0, 0, 0, 0, 0, 0, 0, 0, 0, 0, 0, 95, 19, 35, 99, 19, 16, 2, 88, 4, 16, 111, 16, 68, 19, 95, 84, 2, 88, 84, 16, 68, 16, 68, 88, 2, 84, 84, 117, 4, 95, 16, 84, 24, 107, 19, 57, 68, 2, 84, 4, 76, 51, 88, 68, 101, 95, 102, 52, 102, 76, 102, 102, 111, 102, 43, 101, 86, 107, 114, 88, 120, 106, 114, 76, 111, 95, 87, 76, 97, 76, 49, 101, 88, 111, 88, 102, 73, 81, 107, 65]	[91, 0, 16, 0, 12, 0, 0, 0, 0, 0, 0, 0, 0, 0, 0, 0, 14, 0, 0, 4, 0, 0, 0, 0, 14, 0, 0, 0, 0, 0, 0, 0, 0, 0, 0, 17, 0, 0, 0, 0, 0, 0, 0, 16, 0, 0, 0, 0, 0, 9, 0, 1, 8, 0, 0, 0, 0, 7, 0, 0, 0, 0, 0, 0, 0, 5, 0, 0, 11, 0, 0, 0, 0, 13, 0, 0, 6, 0, 0, 0, 0, 1, 0, 0, 6, 0, 2, 1, 7, 0, 0, 0, 0, 0, 0, 15, 0, 1, 0, 1, 0, 3, 7, 0, 0, 0, 8, 0, 0, 0, 0, 8, 0, 0, 3, 0, 0, 12, 0, 0, 4]	0.0036009041129436443
GEN 17 time 1578998432
